node {
  name: "global_step/Initializer/zeros/shape_as_tensor"
  op: "Const"
  attr {
    key: "_class"
    value {
      list {
        s: "loc:@global_step"
      }
    }
  }
  attr {
    key: "_output_shapes"
    value {
      list {
        shape {
          dim {
          }
        }
      }
    }
  }
  attr {
    key: "dtype"
    value {
      type: DT_INT32
    }
  }
  attr {
    key: "value"
    value {
      tensor {
        dtype: DT_INT32
        tensor_shape {
          dim {
          }
        }
      }
    }
  }
}
node {
  name: "global_step/Initializer/zeros/Const"
  op: "Const"
  attr {
    key: "_class"
    value {
      list {
        s: "loc:@global_step"
      }
    }
  }
  attr {
    key: "_output_shapes"
    value {
      list {
        shape {
        }
      }
    }
  }
  attr {
    key: "dtype"
    value {
      type: DT_INT64
    }
  }
  attr {
    key: "value"
    value {
      tensor {
        dtype: DT_INT64
        tensor_shape {
        }
        int64_val: 0
      }
    }
  }
}
node {
  name: "global_step/Initializer/zeros"
  op: "Fill"
  input: "global_step/Initializer/zeros/shape_as_tensor"
  input: "global_step/Initializer/zeros/Const"
  attr {
    key: "T"
    value {
      type: DT_INT64
    }
  }
  attr {
    key: "_class"
    value {
      list {
        s: "loc:@global_step"
      }
    }
  }
  attr {
    key: "_output_shapes"
    value {
      list {
        shape {
        }
      }
    }
  }
  attr {
    key: "index_type"
    value {
      type: DT_INT32
    }
  }
}
node {
  name: "global_step"
  op: "VariableV2"
  attr {
    key: "_class"
    value {
      list {
        s: "loc:@global_step"
      }
    }
  }
  attr {
    key: "_output_shapes"
    value {
      list {
        shape {
        }
      }
    }
  }
  attr {
    key: "container"
    value {
      s: ""
    }
  }
  attr {
    key: "dtype"
    value {
      type: DT_INT64
    }
  }
  attr {
    key: "shape"
    value {
      shape {
      }
    }
  }
  attr {
    key: "shared_name"
    value {
      s: ""
    }
  }
}
node {
  name: "global_step/Assign"
  op: "Assign"
  input: "global_step"
  input: "global_step/Initializer/zeros"
  attr {
    key: "T"
    value {
      type: DT_INT64
    }
  }
  attr {
    key: "_class"
    value {
      list {
        s: "loc:@global_step"
      }
    }
  }
  attr {
    key: "_output_shapes"
    value {
      list {
        shape {
        }
      }
    }
  }
  attr {
    key: "use_locking"
    value {
      b: true
    }
  }
  attr {
    key: "validate_shape"
    value {
      b: true
    }
  }
}
node {
  name: "global_step/read"
  op: "Identity"
  input: "global_step"
  attr {
    key: "T"
    value {
      type: DT_INT64
    }
  }
  attr {
    key: "_class"
    value {
      list {
        s: "loc:@global_step"
      }
    }
  }
  attr {
    key: "_output_shapes"
    value {
      list {
        shape {
        }
      }
    }
  }
}
node {
  name: "global_step/IsVariableInitialized"
  op: "IsVariableInitialized"
  input: "global_step"
  attr {
    key: "_class"
    value {
      list {
        s: "loc:@global_step"
      }
    }
  }
  attr {
    key: "_output_shapes"
    value {
      list {
        shape {
        }
      }
    }
  }
  attr {
    key: "dtype"
    value {
      type: DT_INT64
    }
  }
}
node {
  name: "global_step/cond/Switch"
  op: "Switch"
  input: "global_step/IsVariableInitialized"
  input: "global_step/IsVariableInitialized"
  attr {
    key: "T"
    value {
      type: DT_BOOL
    }
  }
  attr {
    key: "_output_shapes"
    value {
      list {
        shape {
        }
        shape {
        }
      }
    }
  }
}
node {
  name: "global_step/cond/switch_t"
  op: "Identity"
  input: "global_step/cond/Switch:1"
  attr {
    key: "T"
    value {
      type: DT_BOOL
    }
  }
  attr {
    key: "_output_shapes"
    value {
      list {
        shape {
        }
      }
    }
  }
}
node {
  name: "global_step/cond/switch_f"
  op: "Identity"
  input: "global_step/cond/Switch"
  attr {
    key: "T"
    value {
      type: DT_BOOL
    }
  }
  attr {
    key: "_output_shapes"
    value {
      list {
        shape {
        }
      }
    }
  }
}
node {
  name: "global_step/cond/pred_id"
  op: "Identity"
  input: "global_step/IsVariableInitialized"
  attr {
    key: "T"
    value {
      type: DT_BOOL
    }
  }
  attr {
    key: "_output_shapes"
    value {
      list {
        shape {
        }
      }
    }
  }
}
node {
  name: "global_step/cond/read"
  op: "Identity"
  input: "global_step/cond/read/Switch:1"
  attr {
    key: "T"
    value {
      type: DT_INT64
    }
  }
  attr {
    key: "_output_shapes"
    value {
      list {
        shape {
        }
      }
    }
  }
}
node {
  name: "global_step/cond/read/Switch"
  op: "RefSwitch"
  input: "global_step"
  input: "global_step/cond/pred_id"
  attr {
    key: "T"
    value {
      type: DT_INT64
    }
  }
  attr {
    key: "_class"
    value {
      list {
        s: "loc:@global_step"
      }
    }
  }
  attr {
    key: "_output_shapes"
    value {
      list {
        shape {
        }
        shape {
        }
      }
    }
  }
}
node {
  name: "global_step/cond/Switch_1"
  op: "Switch"
  input: "global_step/Initializer/zeros"
  input: "global_step/cond/pred_id"
  attr {
    key: "T"
    value {
      type: DT_INT64
    }
  }
  attr {
    key: "_class"
    value {
      list {
        s: "loc:@global_step"
      }
    }
  }
  attr {
    key: "_output_shapes"
    value {
      list {
        shape {
        }
        shape {
        }
      }
    }
  }
}
node {
  name: "global_step/cond/Merge"
  op: "Merge"
  input: "global_step/cond/Switch_1"
  input: "global_step/cond/read"
  attr {
    key: "N"
    value {
      i: 2
    }
  }
  attr {
    key: "T"
    value {
      type: DT_INT64
    }
  }
  attr {
    key: "_output_shapes"
    value {
      list {
        shape {
        }
        shape {
        }
      }
    }
  }
}
node {
  name: "global_step/add/y"
  op: "Const"
  attr {
    key: "_output_shapes"
    value {
      list {
        shape {
        }
      }
    }
  }
  attr {
    key: "dtype"
    value {
      type: DT_INT64
    }
  }
  attr {
    key: "value"
    value {
      tensor {
        dtype: DT_INT64
        tensor_shape {
        }
        int64_val: 0
      }
    }
  }
}
node {
  name: "global_step/add"
  op: "Add"
  input: "global_step/cond/Merge"
  input: "global_step/add/y"
  attr {
    key: "T"
    value {
      type: DT_INT64
    }
  }
  attr {
    key: "_output_shapes"
    value {
      list {
        shape {
        }
      }
    }
  }
}
node {
  name: "tensors/component_0"
  op: "Const"
  device: "/device:CPU:0"
  attr {
    key: "_output_shapes"
    value {
      list {
        shape {
          dim {
            size: 449
          }
        }
      }
    }
  }
  attr {
    key: "dtype"
    value {
      type: DT_DOUBLE
    }
  }
  attr {
    key: "value"
    value {
      tensor {
        dtype: DT_DOUBLE
        tensor_shape {
          dim {
            size: 449
          }
        }
        tensor_content: "\000\000\000\000\000H\217@\000\000\000\000\000\270\224@\000\000\000\000\000\314\222@\232\231\231\231\231!x@\000\000\000\000\000D\224@\232\231\231\231\231\321}@\000\000\000\000\000@\220@33333\017\202@fffff>\200@fffff\276}@fffff\356\210@\000\000\000\000\000h\210@\000\000\000\000\000\214\221@\232\231\231\231\231u\210@fffff\022\202@fffff\226\204@\000\000\000\000\000d\205@fffff\366\210@\000\000\000\000\000\260\223@fffff\262\201@\000\000\000\000\000@\200@fffff\036q@33333\003\206@\000\000\000\000\000\360\225@\315\314\314\314\314D\214@\232\231\231\231\231\205\214@fffff&\204@\000\000\000\000\000\030\221@33333\343\206@\315\314\314\314\314\330\215@\000\000\000\000\000\000\221@\232\231\231\231\231\211{@fffff\032\214@\000\000\000\000\000(\222@\232\231\231\231\2319\211@\000\000\000\000\000,\213@\000\000\000\000\000\310\203@fffff^\200@fffff\326\205@\232\231\231\231\231y\201@\000\000\000\000\000\230\201@\232\231\231\231\2311w@\000\000\000\000\000@\221@\232\231\231\231\231\t\201@\000\000\000\000\000\234\200@\000\000\000\000\000\320\220@\315\314\314\314\314<i@\315\314\314\314\314\264\200@\315\314\314\314\314\024|@\000\000\000\000\000\210\201@fffff\276z@fffff\336\201@\232\231\231\231\231Y{@\000\000\000\000\000$\220@fffffF\206@\000\000\000\000\000\220y@\000\000\000\000\000\000\222@33333\207\204@\232\231\231\231\231y\200@\000\000\000\000\000\020l@fffff~s@\232\231\231\231\231\271k@\232\231\231\231\231-\204@fffffNp@\000\000\000\000\0000\177@fffff\342\204@fffff\326p@\232\231\231\231\231\241x@\000\000\000\000\000Po@\000\000\000\000\000h\177@\000\000\000\000\000\250\221@\000\000\000\000\000\200n@33333\013\215@\315\314\314\314\314@\202@fffffn}@\232\231\231\231\231\215\211@\232\231\231\231\231y\201@\000\000\000\000\000p\217@\000\000\000\000\000t\223@\315\314\314\314\314\244\177@\000\000\000\000\000\030y@\000\000\000\000\000@\200@\000\000\000\000\000X\235@\000\000\000\000\000\260\221@\315\314\314\314\314\264{@\000\000\000\000\000\314\220@\232\231\231\231\231A\204@\000\000\000\000\000\320\220@\232\231\231\231\231!}@33333_\204@\232\231\231\231\231\265\204@\232\231\231\231\231\301\206@\232\231\231\231\231=\201@\315\314\314\314\314X\201@\315\314\314\314\314\014\206@\000\000\000\000\000\300\223@\232\231\231\231\2311|@\000\000\000\000\000hr@\232\231\231\231\231\311y@\000\000\000\000\000\024\204@\232\231\231\231\2315\202@\000\000\000\000\000\360a@33333\253|@\315\314\314\314\314\244r@\232\231\231\231\231\001u@\232\231\231\231\231\221\200@\000\000\000\000\000\310y@33333+}@\000\000\000\000\000\224\227@\000\000\000\000\000\310x@33333#r@fffff\006~@33333\257\203@33333\343t@\315\314\314\314\314\334l@\232\231\231\231\231i{@fffff\246n@\000\000\000\000\000T\205@\315\314\314\314\314t\210@\000\000\000\000\000\260\216@\315\314\314\314\3144y@\000\000\000\000\000\324\220@\000\000\000\000\000\204\233@\232\231\231\231\231\005\204@\000\000\000\000\000L\201@\232\231\231\231\231e\202@\315\314\314\314\314\344\201@\000\000\000\000\000\310\221@\000\000\000\000\000\024\205@\000\000\000\000\000\240\222@\315\314\314\314\314||@33333g\207@fffffN\211@\232\231\231\231\231\315\207@\000\000\000\000\000\314\220@\315\314\314\314\314\244\177@\232\231\231\231\231yz@\315\314\314\314\314\374x@\315\314\314\314\3140\205@\315\314\314\314\314\014x@\000\000\000\000\000\010r@\000\000\000\000\000h\211@\000\000\000\000\000\340x@\232\231\231\231\231\001\200@\315\314\314\314\3144v@\315\314\314\314\314\014{@\000\000\000\000\000\000{@\000\000\000\000\000\214\205@\315\314\314\314\314\000\204@\000\000\000\000\000H\202@33333;\200@\315\314\314\314\314|i@33333\303r@fffff\336w@33333\327\200@\315\314\314\314\314\304|@\232\231\231\231\231\035\216@\232\231\231\231\231\201\213@\232\231\231\231\231\t|@\315\314\314\314\314\354v@\315\314\314\314\314<z@\000\000\000\000\000\024\222@\000\000\000\000\000\370\222@\000\000\000\000\000\010}@\000\000\000\000\000X\232@\232\231\231\231\231\221\205@\232\231\231\231\231Yv@fffff\262\213@\315\314\314\314\314\304\216@33333o\205@\232\231\231\231\231\001}@33333\253\201@33333\007\207@33333Kw@\232\231\231\231\231\331u@ffffffl@fffff\346r@33333\007\212@33333s\200@\315\314\314\314\314\314\177@\000\000\000\000\000\224\241@\000\000\000\000\000|\224@\315\314\314\314\314\364\207@\000\000\000\000\000 y@\315\314\314\314\3144\206@\000\000\000\000\000\330s@\000\000\000\000\000D\220@\315\314\314\314\314Dz@fffff\316z@33333\373|@33333\017\203@fffff\266\177@\232\231\231\231\231\001r@fffff\326}@33333\373\204@33333#\200@33333g\202@\000\000\000\000\000\000\220@\000\000\000\000\000\360\221@\232\231\231\231\231\025\204@\000\000\000\000\000\320|@\315\314\314\314\314\274\215@\000\000\000\000\000T\232@fffff\256\202@fffff\036~@\315\314\314\314\314d\206@fffffvr@fffffB\214@33333\213\200@\000\000\000\000\000\254\206@\000\000\000\000\000(\224@\000\000\000\000\000\300z@\000\000\000\000\000\206\243@\000\000\000\000\000\240\215@\232\231\231\231\231\025\203@33333\027\202@33333\003{@33333\023t@\000\000\000\000\0008\223@\000\000\000\000\000\034\223@33333\307\201@fffff\212\201@\232\231\231\231\231\221s@fffff\312\207@33333\023\201@\232\231\231\231\231\t\204@\232\231\231\231\231\231t@\000\000\000\000\000d\205@fffff\006\177@33333s\177@\000\000\000\000\000\370\213@33333\273x@\315\314\314\314\314,x@\000\000\000\000\000\234\224@\232\231\231\231\231yq@33333\333\202@\000\000\000\000\000\030\232@\000\000\000\000\000h\224@33333\177\203@\315\314\314\314\314\304\214@fffff\372\201@\000\000\000\000\000\310}@fffffVx@\000\000\000\000\000p\202@\000\000\000\000\000\014\222@33333\033u@\315\314\314\314\314\354\200@\232\231\231\231\231\001\200@\000\000\000\000\000\260u@\315\314\314\314\314dy@\000\000\000\000\000P\225@fffffvy@\000\000\000\000\000\330\222@\232\231\231\231\231\001\215@\000\000\000\000\000D\222@33333\323\202@\000\000\000\000\000\334\222@fffffJ\206@\000\000\000\000\000,\210@33333G\207@\000\000\000\000\000 \224@\315\314\314\314\314(\215@fffff\236\215@\315\314\314\314\314\264\207@fffff\002\215@\000\000\000\000\000,\226@fffff\246u@\000\000\000\000\000\210\201@\232\231\231\231\231\001\200@fffff\216u@\315\314\314\314\314\304\203@\000\000\000\000\000@x@\000\000\000\000\000L\227@fffff\036r@333337\217@\232\231\231\231\2319{@\232\231\231\231\231\311x@\000\000\000\000\0008\221@fffff\342\201@33333[\202@\000\000\000\000\000\310\221@\315\314\314\314\314\264z@\000\000\000\000\000\344\221@\315\314\314\314\314(\211@\315\314\314\314\314$\200@\000\000\000\000\000\220~@\000\000\000\000\000\220{@33333\037\200@\232\231\231\231\231\241x@\000\000\000\000\000\300x@\000\000\000\000\000X\204@fffffz\205@\232\231\231\231\231\r\200@33333\013{@\232\231\231\231\231\301~@\232\231\231\231\2315\202@33333\273v@\232\231\231\231\231\361z@\315\314\314\314\314\310\203@33333\343t@\000\000\000\000\000\004\223@\315\314\314\314\314t}@\000\000\000\000\000|\223@\315\314\314\314\314\344t@\232\231\231\231\2311y@33333\023z@fffff\312\200@\232\231\231\231\231\311n@\232\231\231\231\231\261\201@\315\314\314\314\314\224\200@33333+z@33333\307\204@\232\231\231\231\231\201\177@\232\231\231\231\231\221y@fffff\246k@\232\231\231\231\231\031~@fffff\326|@\000\000\000\000\000\014\220@\000\000\000\000\000\220n@\315\314\314\314\314\324}@33333Ct@\000\000\000\000\000\350\223@\315\314\314\314\314\214\177@\000\000\000\000\000\300\223@fffff\236|@fffff\236~@\000\000\000\000\000D\203@\000\000\000\000\000\340{@\232\231\231\231\231m\211@fffff\326\211@\232\231\231\231\231\311\210@\000\000\000\000\000\020\200@\315\314\314\314\3144x@\000\000\000\000\000`x@fffff\006}@\315\314\314\314\314\264\214@fffff\022\200@\000\000\000\000\000\020\221@\315\314\314\314\314ls@\000\000\000\000\000L\233@\232\231\231\231\231\t\204@\000\000\000\000\000\210q@fffff^w@\000\000\000\000\000\250\222@\315\314\314\314\314Dz@\232\231\231\231\231\031t@\315\314\314\314\314\324{@\232\231\231\231\231\345\204@33333+y@33333\253z@\000\000\000\000\000Pz@\315\314\314\314\314\264\207@\000\000\000\000\000h\237@\315\314\314\314\314d\206@\232\231\231\231\231\tx@\315\314\314\314\314\\~@\000\000\000\000\000\000\200@\232\231\231\231\231\215\202@\000\000\000\000\000 n@\232\231\231\231\231iq@fffff\276~@\315\314\314\314\314\020\201@\232\231\231\231\231\t\177@\315\314\314\314\3140\212@33333C\201@\000\000\000\000\0004\224@\000\000\000\000\000H\223@fffff\246|@\000\000\000\000\000(\230@\000\000\000\000\000(\227@33333C\212@fffff>\206@\000\000\000\000\000\250\225@\000\000\000\000\000\334\224@\315\314\314\314\314\030\202@\000\000\000\000\000\244\210@\315\314\314\314\314$u@\315\314\314\314\314\220\201@\315\314\314\314\314$\202@\232\231\231\231\231\231v@\315\314\314\314\314$x@33333Kw@\315\314\314\314\314\374{@fffff\356|@fffff\356\200@\232\231\231\231\231\305\204@\000\000\000\000\000\340|@\315\314\314\314\314\244\202@\000\000\000\000\000\200x@\000\000\000\000\000X\222@\232\231\231\231\231\031t@\232\231\231\231\231Im@\232\231\231\231\231E\207@\000\000\000\000\000\374\225@33333\343{@\315\314\314\314\314\010\203@\315\314\314\314\314p\201@\315\314\314\314\314\304\177@33333\243w@fffff\376z@\000\000\000\000\000\020\217@33333\253{@\232\231\231\231\231i\200@\232\231\231\231\231\271\177@\232\231\231\231\231Q}@\000\000\000\000\000 w@\000\000\000\000\000\000\211@\000\000\000\000\000\024\200@\232\231\231\231\231\375\216@\232\231\231\231\231!}@\315\314\314\314\314\374x@33333Sw@\315\314\314\314\314\314p@\232\231\231\231\231\255\205@\000\000\000\000\000|\206@\315\314\314\314\314\034{@33333\363p@\315\314\314\314\314\030\211@\000\000\000\000\000\360~@\315\314\314\314\314\304w@33333\233y@\315\314\314\314\314\200\204@33333\203y@fffff\372\201@33333\033r@\315\314\314\314\3144s@\232\231\231\231\231\331t@fffff~v@\232\231\231\231\231\321w@\315\314\314\314\314T\177@\000\000\000\000\000h\205@\315\314\314\314\314<}@\000\000\000\000\000\210\223@\000\000\000\000\000X\221@\232\231\231\231\231\r\205@\000\000\000\000\000\274\202@33333\323\177@\232\231\231\231\231\031\203@\315\314\314\314\314\204\202@\000\000\000\000\000\364\202@\000\000\000\000\0008w@fffff\006\215@33333O\202@fffffNu@\000\000\000\000\000\360\216@\315\314\314\314\314\224{@\315\314\314\314\314\254\216@fffff\026\205@\232\231\231\231\231\235\204@"
      }
    }
  }
}
node {
  name: "tensors/component_1"
  op: "Const"
  device: "/device:CPU:0"
  attr {
    key: "_output_shapes"
    value {
      list {
        shape {
          dim {
            size: 449
          }
        }
      }
    }
  }
  attr {
    key: "dtype"
    value {
      type: DT_DOUBLE
    }
  }
  attr {
    key: "value"
    value {
      tensor {
        dtype: DT_DOUBLE
        tensor_shape {
          dim {
            size: 449
          }
        }
        tensor_content: "\315\314\314\314\314,c@\205\353Q\270\036\205R@R\270\036\205\353\201W@{\024\256G\341:;@\\\217\302\365(\234W@q=\n\327\2430;@\024\256G\341z\364J@{\024\256G\341zI@R\270\036\205\353Q8@q=\n\327\243\3607@\341z\024\256GAD@\024\256G\341z\024K@\315\314\314\314\314\014]@\n\327\243p=JB@\366(\\\217\30253@fffffF@@33333\263F@\327\243p=\n\027K@\232\231\231\231\231\031\\@\217\302\365(\\\2177@\327\243p=\nW-@ffffff/@\024\256G\341ztF@\217\302\365(\\\177W@fffff\246Y@\232\231\231\231\231\331[@\315\314\314\314\314\0145@\303\365(\\\217bW@\000\000\000\000\000\300E@\315\314\314\314\314\214N@\000\000\000\000\000@Z@\000\000\000\000\000\200D@R\270\036\205\353\361P@{\024\256G\341\nQ@\244p=\n\327\203A@\270\036\205\353Q\230F@)\\\217\302\365\3508@R\270\036\205\353Q,@\000\000\000\000\000\200Z@\205\353Q\270\036\2052@H\341z\024\256\2074@\270\036\205\353Q\3700@\232\231\231\231\2319Z@\024\256G\341zT?@{\024\256G\341\372,@\244p=\n\327\343Q@)\\\217\302\365h @\000\000\000\000\000@8@\037\205\353Q\270\3363@3333334@\270\036\205\353Qx<@\232\231\231\231\231\031-@\270\036\205\353Qx1@\244p=\n\327\263X@)\\\217\302\365\350=@\270\036\205\353Qx7@\000\000\000\000\000\240Y@\354Q\270\036\205\013D@{\024\256G\341z@@\277\237\032/\335\244 @\217\302\365(\\OA@\244p=\n\327c2@\244p=\n\327cN@\205\353Q\270\036\2057@{\024\256G\341:B@\037\205\353Q\270\236A@ffffff,@fffff&2@\354Q\270\036\205\2531@\024\256G\341zT2@33333\003X@q=\n\327\243p9@\256G\341z\024^Q@\232\231\231\231\231Y7@\256G\341z\024\2563@\000\000\000\000\000\320S@33333S@@\232\231\231\231\231\331`@\232\231\231\231\231\031]@\232\231\231\231\231Y4@\037\205\353Q\270\2368@\354Q\270\036\205\353)@\000\000\000\000\000\000^@fffff\306P@)\\\217\302\365(0@fffff&T@\217\302\365(\\oC@33333\323L@33333\3634@\341z\024\256GaE@\341z\024\256G\341@@q=\n\327\243p=@\315\314\314\314\314,B@\270\036\205\353Q89@R\270\036\205\353\221G@H\341z\024\256\367U@q=\n\327\243p8@\315\314\314\314\314\0144@\000\000\000\000\000\200/@\232\231\231\231\231\331:@R\270\036\205\353\221E@\321\"\333\371~\252#@\\\217\302\365(\\-@\n\327\243p=\212\'@\341z\024\256G!7@\024\256G\341zTA@\037\205\353Q\270\2364@Nb\020X9t\"@\000\000\000\000\000@e@)\\\217\302\365h0@\037\205\353Q\270\3366@{\024\256G\341z4@\000\000\000\000\000@=@)\\\217\302\365\3503@<\337O\215\227\356!@\n\327\243p=\3128@q=\n\327\243\3600@\327\243p=\n\227D@q=\n\327\243PM@\205\353Q\270\036\005K@\000\000\000\000\000\000%@\256G\341z\024\236V@\000\000\000\000\000 m@q=\n\327\24308@R\270\036\205\353Q-@)\\\217\302\365\3501@\024\256G\341z\3243@\037\205\353Q\270NT@\354Q\270\036\205\353C@\n\327\243p=\252O@{\024\256G\341z.@H\341z\024\256\'H@\327\243p=\n\327E@q=\n\327\243\360;@fffff\026Q@\037\205\353Q\270\3363@\217\302\365(\\/A@\327\243p=\nW)@\232\231\231\231\231yY@\024\256G\341zT:@\205\353Q\270\036\205(@\205\353Q\270\036\205R@\341z\024\256Ga5@\244p=\n\327\2430@=\n\327\243p\2751@H\341z\024\256\0079@\270\036\205\353Q\2708@\327\243p=\n\267C@3333335@\270\036\205\353Qx5@\244p=\n\327cA@\354Q\270\036\205k$@\315\314\314\314\314\354H@\366(\\\217\302\365.@\n\327\243p=\3126@\303\365(\\\217\2020@\n\327\243p=zW@\256G\341z\024NG@\000\000\000\000\000\200*@\n\327\243p=\2122@\354Q\270\036\205+C@33333\323]@\024\256G\341zDX@\315\314\314\314\314\2145@fffffvX@\244p=\n\327\2430@\366(\\\217\302\365&@\366(\\\217\302\325P@33333\223^@H\341z\024\256G8@\256G\341z\024n1@33333\263E@R\270\036\205\353QF@\024\256G\341z\0243@{\024\256G\341\3725@\270\036\205\353Q\270&@{\024\256G\341z;@\327\243p=\n\227?@\256G\341z\024\256,@\n\327\243p=\3125@fffff\026`@=\n\327\243p]T@=\n\327\243p}D@\205\353Q\270\036\3056@H\341z\024\256\2073@\256G\341z\024n:@\354Q\270\036\205\353<@\\\217\302\365(\3341@q=\n\327\243\360,@R\270\036\205\353Q2@\270\036\205\353Q\270?@33333\323J@q=\n\327\243\2605@\270\036\205\353Q8A@3333339@\000\000\000\000\000\200/@\232\231\231\231\231\331H@\327\243p=\n\027S@\\\217\302\365(\034K@\354Q\270\036\205k3@=\n\327\243p=;@=\n\327\243p]D@\n\327\243p=\312T@\\\217\302\365(\\J@\n\327\243p=J>@q=\n\327\243p:@)\\\217\302\365\250(@=\n\327\243p\035Q@\256G\341z\024..@\000\000\000\000\000\0004@\315\314\314\314\314\354[@\037\205\353Q\270\0361@\315\314\314\314\314l\200@\244p=\n\327CM@\000\000\000\000\000\000?@q=\n\327\243\2606@\366(\\\217\302u5@\n\327\243p=\3126@\232\231\231\231\231\031_@\232\231\231\231\231y[@ffffff1@H\341z\024\256\0075@\232\231\231\231\231\031.@\270\036\205\353Q\030@@\256G\341z\024\2568@\205\353Q\270\036%H@\270\036\205\353Q\270\'@\341z\024\256G\3413@\303\365(\\\217\2022@\341z\024\256G!9@{\024\256G\341\372?@\366(\\\217\3025!@\354Q\270\036\205\353.@q=\n\327\243\200Q@H\341z\024\256G)@R\270\036\205\353\0216@\232\231\231\231\231yc@\000\000\000\000\000\340T@\366(\\\217\302\365=@\000\000\000\000\000\200H@q=\n\327\2430;@P\215\227n\022\003\"@\244p=\n\327c0@\327\243p=\n\367C@\024\256G\341z4N@\270\036\205\353Q87@\037\205\353Q\270\036+@\232\231\231\231\231Y0@\244p=\n\327\2430@\037\205\353Q\270\2362@\315\314\314\314\314<a@=\n\327\243p\375:@\244p=\n\3273W@q=\n\327\243\320@@\000\000\000\000\000\300Q@\037\205\353Q\270\336A@\232\231\231\231\231\231Z@{\024\256G\341\272M@\000\000\000\000\000Pa@\205\353Q\270\036\0057@\354Q\270\036\205+J@\024\256G\341z4F@\\\217\302\365(\274V@\256G\341z\024.6@\366(\\\217\302\265F@fffff\366h@\232\231\231\231\231\031;@\303\365(\\\217\302:@=\n\327\243p=2@=\n\327\243p\2754@\n\327\243p=\212%@\327\243p=\nW*@\232\231\231\231\231\231c@\244p=\n\327c0@H\341z\024\256\347F@\354Q\270\036\205kH@\327\243p=\n\0271@\037\205\353Q\270^B@\270\036\205\353Q86@)\\\217\302\365h3@\232\231\231\231\231iQ@\n\327\243p=\352B@\024\256G\341z\224J@\327\243p=\n\027<@\n\327\243p=J7@33333s6@)\\\217\302\365\3505@\\\217\302\365(\\)@\327\243p=\nWA@=\n\327\243p}1@\327\243p=\nGS@\037\205\353Q\270\3368@\354Q\270\036\205\2531@\303\365(\\\217\302+@\303\365(\\\217\302*@=\n\327\243p\2751@\256G\341z\024.&@\256G\341z\024\216H@\217\302\365(\\\2174@\217\302\365(\\\2174@\000\000\000\000\000\240`@R\270\036\205\353Q<@\232\231\231\231\231Y`@)\\\217\302\365($@\256G\341z\024\3566@\366(\\\217\30252@\000\000\000\000\000\000/@\207\026\331\316\367\223#@\244p=\n\327c4@\341z\024\256G\201@@\217\302\365(\\\217&@fffff\346<@\256G\341z\024.9@\306K7\211A\340\"@\217\302\365(\\\3171@\341z\024\256Ga)@\244p=\n\327\243/@33333sH@3333338@)\\\217\302\365(?@\256G\341z\024\2566@fffff\266R@R\270\036\205\353\2210@\244p=\n\327CQ@\303\365(\\\217\0023@\\\217\302\365(\2341@\354Q\270\036\205\3537@\270\036\205\353Q\3700@\024\256G\341z4F@\\\217\302\365(\334L@\303\365(\\\217\242@@fffff\2464@\037\205\353Q\270\2363@\244p=\n\327#.@{\024\256G\341z*@{\024\256G\341\312U@R\270\036\205\353\321,@\000\000\000\000\000\020V@\232\231\231\231\231\3310@33333\203d@R\270\036\205\353\021@@\244p=\n\327#(@\232\231\231\231\231\231%@\n\327\243p=\352P@H\341z\024\256\2078@\024\256G\341zT3@\205\353Q\270\036\0052@\217\302\365(\\\017=@\000\000\000\000\000\200(@fffff\246:@H\341z\024\256\007:@\\\217\302\365(\234I@33333#c@\217\302\365(\\\257O@\327\243p=\n\327<@=\n\327\243p};@R\270\036\205\353\2215@=\n\327\243p\2754@\256G\341z\024.>@{\024\256G\341z>@\315\314\314\314\314L<@{\024\256G\341\3724@\303\365(\\\217B1@\n\327\243p=\312@@q=\n\327\243p*@\\\217\302\365(\034R@fffff\346Y@R\270\036\205\353\2212@33333\003l@fffffF`@\000\000\000\000\000\300F@\270\036\205\353Q\2701@H\341z\024\256\207C@\341z\024\256GAS@\000\000\000\000\000\000,@R\270\036\205\353\321-@\266\363\375\324x\351\034@R\270\036\205\353\321-@33333\263&@{\024\256G\341\372+@\n\327\243p=\n0@\\\217\302\365(\\\'@\014\002+\207\026\031#@3333333@\205\353Q\270\036\205.@\341z\024\256G\201@@\366(\\\217\302\3653@\037\205\353Q\270\0367@\270\036\205\353Q\3706@fffff\206Q@\303\365(\\\217\302\'@\232\231\231\231\231\331<@\n\327\243p=\272P@\217\302\365(\\?T@\270\036\205\353Q86@\327\243p=\nW)@\n\327\243p=J3@R\270\036\205\353\221>@\366(\\\217\302\365)@\217\302\365(\\\0179@\341z\024\256G\301D@33333\3632@\366(\\\217\30254@\270\036\205\353Q\270&@fffff&>@H\341z\024\256\3079@\024\256G\341z\3245@\037\205\353Q\270\236D@H\341z\024\256\347H@\n\327\243p=\3129@R\270\036\205\353Q+@\024\256G\341z\024+@i\221\355|?5\033@\303\365(\\\217\202<@q=\n\327\243\260F@H\341z\024\256\2073@\354Q\270\036\205+9@\000\000\000\000\000\020f@\037\205\353Q\270^1@=\n\327\243p\3752@\315\314\314\314\314L4@\232\231\231\231\231\271H@H\341z\024\256\307/@\\\217\302\365(\\3@\303\365(\\\217\302E@333333\'@\205\353Q\270\036\3054@3333334@\234\304 \260rh#@=\n\327\243p=7@q=\n\327\24308@\\\217\302\365(\334.@\037\205\353Q\270>J@\232\231\231\231\231\371Y@\354Q\270\036\205\3537@\232\231\231\231\231\3312@\000\000\000\000\000\200:@\037\205\353Q\270^@@\341z\024\256G\241=@\000\000\000\000\000@3@fffff&2@q=\n\327\2430M@\327\243p=\nW=@=\n\327\243p=*@\303\365(\\\217\342A@\244p=\n\327c3@\232\231\231\231\231\371E@\000\000\000\000\000\3003@\n\327\243p=\n7@"
      }
    }
  }
}
node {
  name: "tensors/component_2"
  op: "Const"
  device: "/device:CPU:0"
  attr {
    key: "_output_shapes"
    value {
      list {
        shape {
          dim {
            size: 449
          }
        }
      }
    }
  }
  attr {
    key: "dtype"
    value {
      type: DT_DOUBLE
    }
  }
  attr {
    key: "value"
    value {
      tensor {
        dtype: DT_DOUBLE
        tensor_shape {
          dim {
            size: 449
          }
        }
        tensor_content: "\000\000\000\000\000\214\237@\000\000\000\000\000\220\236@\000\000\000\000\000\264\232@\232\231\231\231\231\275\201@\000\000\000\000\000\234\230@\315\314\314\314\314,\207@\000\000\000\000\000\030\231@\000\000\000\000\000\010\214@fffff\032\207@33333;\206@\000\000\000\000\000\370\221@\000\000\000\000\000L\224@\000\000\000\000\000\320\224@\000\000\000\000\000d\213@\232\231\231\231\231\315\205@\232\231\231\231\231y\215@\000\000\000\000\000\310\221@\000\000\000\000\000\214\224@\000\000\000\000\000\274\242@\232\231\231\231\2319\206@\000\000\000\000\000\264\203@fffff\256s@33333\247\216@\000\000\000\000\000n\244@\000\000\000\000\000N\241@\000\000\000\000\000\324\226@33333\007\214@\000\000\000\000\000\354\225@\000\000\000\000\000\324\223@\000\000\000\000\000,\223@\000\000\000\000\000\030\232@\232\231\231\231\231\305\213@\000\000\000\000\000\000\225@\000\000\000\000\000T\234@\000\000\000\000\000\264\223@\000\000\000\000\0004\223@\315\314\314\314\314\374\210@33333\017\201@fffff\326\205@33333#\207@33333\237\210@\000\000\000\000\000\020\200@\000\000\000\000\000\314\231@\232\231\231\231\231Y\214@\232\231\231\231\231%\207@\000\000\000\000\000|\230@fffffFn@33333\273\207@\315\314\314\314\3144\202@fffff\326\205@\000\000\000\000\000$\200@\232\231\231\231\231\205\204@\232\231\231\231\231y\200@\000\000\000\000\000\244\224@\000\000\000\000\000\030\220@33333\243\177@\000\000\000\000\000\302\240@\000\000\000\000\000\314\216@\315\314\314\314\314\200\203@fffff.q@\232\231\231\231\231\tw@fffff\036q@\000\000\000\000\000\374\215@\232\231\231\231\231as@fffff\302\213@\315\314\314\314\314\350\214@33333\253t@33333+}@33333Kt@33333W\201@\000\000\000\000\000(\235@fffff\306q@\000\000\000\000\000D\232@33333c\211@\315\314\314\314\314\030\203@\000\000\000\000\000\034\223@\000\000\000\000\000\354\202@\000\000\000\000\000(\231@\000\000\000\000\000\\\231@\315\314\314\314\314p\203@\315\314\314\314\314h\200@333337\203@\000\000\000\000\000\004\244@\000\000\000\000\000H\224@33333\277\201@\000\000\000\000\000\014\231@33333G\211@\000\000\000\000\000\\\231@\232\231\231\231\231\365\201@\315\314\314\314\314\034\211@\232\231\231\231\231\035\211@33333\367\211@\315\314\314\314\314\364\211@33333\333\205@\000\000\000\000\000\004\220@\000\000\000\000\000X\233@33333\363~@\232\231\231\231\231\341v@\000\000\000\000\000\004\200@33333\323\211@\000\000\000\000\000T\214@fffff&g@fffff\036\201@33333\223v@\315\314\314\314\314,y@\232\231\231\231\231\331\211@\232\231\231\231\231M\200@\315\314\314\314\314\000\201@\000\000\000\000\000p\242@\315\314\314\314\3140\200@\000\000\000\000\000\360v@33333{\200@\000\000\000\000\000(\206@ffffffw@fffff\306q@\000\000\000\000\0008\202@\000\000\000\000\000\340p@\000\000\000\000\000\034\221@\000\000\000\000\000\340\223@\000\000\000\000\000\264\223@\000\000\000\000\000\350\177@\000\000\000\000\0004\230@\000\000\000\000\0002\240@\000\000\000\000\000L\207@\315\314\314\314\314\300\203@33333\257\206@\232\231\231\231\231\205\212@\000\000\000\000\000\010\230@\315\314\314\314\314\324\207@\000\000\000\000\000\324\230@\232\231\231\231\231\t\201@\000\000\000\000\000\020\222@\000\000\000\000\000\\\222@fffff\326\214@\000\000\000\000\000\330\230@\315\314\314\314\314l\204@\232\231\231\231\231\025\201@\000\000\000\000\000\340|@33333[\216@\000\000\000\000\000 {@fffffnu@\000\000\000\000\000D\223@\000\000\000\000\000p\177@fffff\036\204@33333\223{@\232\231\231\231\231\331\177@\232\231\231\231\231}\202@\232\231\231\231\231M\211@33333\367\207@33333\257\206@\232\231\231\231\231E\203@\232\231\231\231\2319o@\000\000\000\000\000\310w@\315\314\314\314\314\214{@fffff*\205@\232\231\231\231\231\241\201@\000\000\000\000\000X\224@\000\000\000\000\000 \220@fffff\246\200@\000\000\000\000\000`}@33333\377\200@\000\000\000\000\000\\\227@\000\000\000\000\000p\241@\000\000\000\000\000H\201@\000\000\000\000\000\306\242@\315\314\314\314\314p\210@\000\000\000\000\000\340y@\000\000\000\000\000\260\223@\000\000\000\000\000\360\231@\232\231\231\231\231\315\210@\315\314\314\314\314(\201@\315\314\314\314\314\014\217@\000\000\000\000\0008\221@\000\000\000\000\000\310x@\315\314\314\314\314\204y@333333p@33333cx@\232\231\231\231\231\251\216@fffff\006\203@\232\231\231\231\231\325\201@\000\000\000\000\000 \251@\000\000\000\000\000R\240@\000\000\000\000\000\324\223@333333}@\315\314\314\314\314h\216@\000\000\000\000\000P{@\000\000\000\000\000\010\226@\000\000\000\000\000L\200@\000\000\000\000\000\230~@\232\231\231\231\231\025\201@33333\323\207@\000\000\000\000\000\034\202@\315\314\314\314\314\374r@33333\007\210@\232\231\231\231\231\205\210@\315\314\314\314\314\304\202@333337\211@\000\000\000\000\0000\223@\000\000\000\000\000`\232@\000\000\000\000\000P\220@33333\363\203@\000\000\000\000\000\\\223@\000\000\000\000\000\010\237@\000\000\000\000\000\004\222@33333/\205@\000\000\000\000\000\354\216@\232\231\231\231\231\271t@\000\000\000\000\000\350\222@fffff\372\203@\232\231\231\231\231%\215@\000\000\000\000\000\340\231@fffff\022\201@\000\000\000\000\000\206\243@\000\000\000\000\000\350\217@fffffZ\211@\315\314\314\314\314p\207@\232\231\231\231\231\231\200@33333;y@\000\000\000\000\000d\237@\000\000\000\000\000Z\243@\232\231\231\231\231\021\206@\315\314\314\314\314t\205@\232\231\231\231\231yw@\000\000\000\000\000\000\221@fffff&\206@\232\231\231\231\231I\213@fffff\266x@\232\231\231\231\231A\211@\000\000\000\000\000\200\203@\000\000\000\000\000\020\206@\000\000\000\000\000\224\222@\315\314\314\314\314D|@fffffn}@\000\000\000\000\000@\235@fffff\376t@\000\000\000\000\000\\\206@\000\000\000\000\000\000\247@\000\000\000\000\000X\233@\000\000\000\000\000\340\207@\000\000\000\000\000\000\226@33333[\205@33333\373\200@fffff\216}@\000\000\000\000\000\020\206@\000\000\000\000\000$\226@\315\314\314\314\314,y@\000\000\000\000\000\320\202@\315\314\314\314\314\370\203@33333{|@\315\314\314\314\314\274~@\000\000\000\000\000h\237@fffff\316\177@\000\000\000\000\0004\236@\000\000\000\000\000\030\223@\000\000\000\000\000\320\236@\000\000\000\000\000\320\211@\000\000\000\000\000\030\236@fffff\006\215@\000\000\000\000\000(\223@\000\000\000\000\000,\220@\000\000\000\000\000\320\234@\000\000\000\000\000\010\223@\000\000\000\000\000<\224@\315\314\314\314\314\344\216@\000\000\000\000\000p\226@\000\000\000\000\000\320\252@\315\314\314\314\314\214z@\000\000\000\000\000\254\204@\000\000\000\000\000\254\202@fffff\246y@\315\314\314\314\314d\205@\000\000\000\000\000\230|@\000\000\000\000\000\240\242@333333v@\000\000\000\000\000\240\224@fffff\206}@\000\000\000\000\000\240|@\000\000\000\000\000P\223@\315\314\314\314\314\030\207@\000\000\000\000\000\360\204@\000\000\000\000\000\360\232@\232\231\231\231\231\255\200@\000\000\000\000\000p\231@\000\000\000\000\000\034\220@\315\314\314\314\314\234\202@\315\314\314\314\314\240\201@\315\314\314\314\314\020\201@\000\000\000\000\000\010\202@\232\231\231\231\231Y{@\315\314\314\314\314\264|@fffff\372\207@fffffN\211@33333K\202@fffff.\200@\232\231\231\231\231M\201@\315\314\314\314\314\250\204@33333\203x@\315\314\314\314\314L\201@\232\231\231\231\231\235\211@33333\253v@\000\000\000\000\000\n\240@fffff:\201@\000\000\000\000\000\200\232@fffffvw@\315\314\314\314\314\234~@\000\000\000\000\000\310}@33333\347\203@\000\000\000\000\000\330q@\232\231\231\231\231\325\205@33333\003\205@\232\231\231\231\2311~@fffffF\212@fffffV\203@\315\314\314\314\314<}@33333\003n@\232\231\231\231\231\001\201@\315\314\314\314\314\010\200@\000\000\000\000\0004\227@\232\231\231\231\231\221r@33333\037\200@ffffffx@\000\000\000\000\000\344\231@\000\000\000\000\000\274\202@\000\000\000\000\000H\236@\315\314\314\314\3148\202@33333\363\201@33333o\207@33333[\200@\000\000\000\000\000\204\221@\232\231\231\231\231y\216@\000\000\000\000\000\270\220@fffff\322\203@\232\231\231\231\231A{@33333\313~@fffff\002\201@\000\000\000\000\000H\225@\000\000\000\000\000\000\202@\000\000\000\000\000D\235@\000\000\000\000\000\000x@\000\000\000\000\000\264\246@\315\314\314\314\314\360\212@\232\231\231\231\231\031v@\000\000\000\000\000\200{@\000\000\000\000\000\020\230@33333#\200@\232\231\231\231\231Qv@\315\314\314\314\314\224\201@fffff\206\213@\315\314\314\314\314\274}@33333\003\177@\000\000\000\000\000\364\200@fffff\232\214@\000\000\000\000\000D\251@\000\000\000\000\000h\220@\000\000\000\000\000X|@33333\033\201@\232\231\231\231\231y\202@33333\263\205@\000\000\000\000\000\340r@\232\231\231\231\231y{@\232\231\231\231\231M\202@\232\231\231\231\231i\203@\232\231\231\231\231\035\202@\000\000\000\000\000\210\217@\000\000\000\000\000\274\204@\000\000\000\000\000\320\233@\000\000\000\000\000\034\232@\315\314\314\314\314\204\203@\000\000\000\000\000\216\250@\000\000\000\000\000f\241@\000\000\000\000\0004\222@\315\314\314\314\314\230\211@\000\000\000\000\000\374\227@\000\000\000\000\000h\236@\315\314\314\314\314\364\204@\000\000\000\000\000\354\212@fffff\376u@\315\314\314\314\314D\205@\000\000\000\000\000\210\204@\232\231\231\231\231\301\177@\232\231\231\231\231\301}@\232\231\231\231\231\361{@fffff\206~@\000\000\000\000\000\304\202@\232\231\231\231\231}\203@\232\231\231\231\231\261\207@33333\217\200@fffffJ\207@\000\000\000\000\000 |@\000\000\000\000\000\204\224@\000\000\000\000\000\250x@\000\000\000\000\000\320s@\000\000\000\000\000<\225@\000\000\000\000\000B\240@\000\000\000\000\000|\201@\000\000\000\000\000d\205@\232\231\231\231\231\031\205@\000\000\000\000\000x\202@33333\013\177@\000\000\000\000\000\220\201@\000\000\000\000\000`\224@\000\000\000\000\000l\202@33333o\203@33333\'\202@\315\314\314\314\314\250\200@fffff\206}@33333\237\215@fffff.\204@\000\000\000\000\000\024\225@\232\231\231\231\231\021\203@fffffJ\200@fffffv}@\000\000\000\000\000\320r@\315\314\314\314\314\030\213@33333\033\215@33333W\200@fffffvv@\000\000\000\000\000P\233@33333\267\201@\000\000\000\000\000\240|@\000\000\000\000\000D\200@\232\231\231\231\231I\211@33333\273}@fffff&\206@fffff\316w@\315\314\314\314\314\204w@fffff\206{@\000\000\000\000\000\230~@\232\231\231\231\231Qz@fffffV\202@\232\231\231\231\231\005\212@fffff\036\200@\000\000\000\000\000\034\227@\000\000\000\000\000\014\231@\000\000\000\000\000L\210@fffff*\213@33333\227\203@\000\000\000\000\000p\207@\315\314\314\314\314h\207@33333\207\205@fffff\306}@\000\000\000\000\000\020\224@\315\314\314\314\314\024\206@\315\314\314\314\314\344v@\000\000\000\000\0000\224@33333\017\200@\000\000\000\000\000t\226@\000\000\000\000\000\354\211@\000\000\000\000\000\364\211@"
      }
    }
  }
}
node {
  name: "tensors/component_3"
  op: "Const"
  device: "/device:CPU:0"
  attr {
    key: "_output_shapes"
    value {
      list {
        shape {
          dim {
            size: 449
          }
        }
      }
    }
  }
  attr {
    key: "dtype"
    value {
      type: DT_DOUBLE
    }
  }
  attr {
    key: "value"
    value {
      tensor {
        dtype: DT_DOUBLE
        tensor_shape {
          dim {
            size: 449
          }
        }
        tensor_content: "\207\247W\3122\304\321?\375M(D\300!\264?\362\260Pk\232w\304?\317f\325\347j+\322?\217St$\227\377\300?\303\365(\\\217\302\305?\201\225C\213l\347\273?u\223\030\004V\016\305?_)\313\020\307\272\310?\227\220\017z6\253\316?\246a\370\210\230\022\261?aTR\'\240\211\300?\237\253\255\330_v\317?\273\'\017\013\265\246\271?\266\204|\320\263Y\315?\321\"\333\371~j\304?<\337O\215\227n\262?R\'\240\211\260\341\311?_\230L\025\214J\272?:\351}\343k\317\264?\250\306K7\211A\300?\3127\333\334\230\236\260?\207\026\331\316\367S\313?\013\265\246y\307)\272?J{\203/L\246\302?\247\350H.\377!\315?EGr\371\017\351\307?\356\353\3009#J\273?)\313\020\307\272\270\305?\346\256%\344\203\236\275?e\252`TR\'\310?\272k\t\371\240g\303?\022\245\275\301\027&\303?\342X\027\267\321\000\306?\243#\271\374\207\364\303?\322o_\007\316\031\301?\007\316\031Q\332\033\274?\234\026\274\350+H\243?\205_\352\347ME\252?\252\361\322Mb\020\300?TW>\313\363\340\256?\347\035\247\350H.\277?\324x\351&1\010\314?\032Q\332\033|a\302?\257%\344\203\236\315\272?M\204\rO\257\224\305?\222t\315\344\233m\256?\3019#J{\203\277?\330d\215z\210F\267?L2r\026\366\264\263?[\266\326\027\tm\251?K\345\355\010\247\005\257?\211Fw\020;S\250?5^\272I\014\002\303?\215\321:\252\232 \262?g\\8\020\222\005\254?\017\2343\242\2647\300?F\266\363\375\324x\301?\203\335\260mQf\243?\222\263\260\247\035\376\252?\373\005\273a\333\242\264?\031\220\275\336\375\361\266?\335\265\204|\320\263\311?\202\255\022,\016g\266?e\252`TR\'\300?\003\t\212\037c\356\302?J\007\353\377\034\346\263?\341\177+\331\261\021\250?\331_vO\036\026\302?x\227\213\370N\314\252?\201&\302\206\247W\272?\270@\202\342\307\230\303?\006\201\225C\213l\307?\374\251\361\322Mb\300?\263\322\244\024t{\261?\251\331\003\255\300\220\265?\257%\344\203\236\315\272?d]\334F\003x\313?%u\002\232\010\033\326?9\177\023\n\021p\270?\236c@\366z\367\267?\331\316\367S\343\245\303?u\223\030\004V\016\321??W[\261\277\354\306?\201&\302\206\247W\262?\024\320D\330\360\364\272?\364\340\356\254\335v\271?\035\311\345?\244\337\276?vq\033\r\340-\270?k\232w\234\242#\301?\016g~5\007\010\266?\366\227\335\223\207\205\272?R\'\240\211\260\341\251?\020\351\267\257\003\347\264?p\316\210\322\336\340\303?\221~\373:p\316\300?\377&\024\"\340\020\262?\300\317\270p $\253?\335$\006\201\225C\263?\331=yX\2505\275?\357\003\220\332\304\311\265?r\026\366\264\303_\263?\2240\323\366\257\254\244?Pp\261\242\006\323\270?\022\240\246\226\255\365\265?d;\337O\215\227\306?\267\321\000\336\002\t\272?5\3578EGr\261?e\031\342X\027\267\321?\242E\266\363\375\324\260?\210K\216;\245\203\265?O\036\026jM\363\276?\2760\231*\030\225\314?=\233U\237\253\255\300?\346\350\361{\233\376\264?d#\020\257\353\027\264?\212\216\344\362\037\322\277?\226!\216uq\033\305?w-!\037\364l\306?L\032\243uT5\261?[\323\274\343\024\035\261?)\\\217\302\365(\274?E\330\360\364JY\322?\030\225\324\th\"\274?\215\227n\022\203\300\262?\265\253\220\362\223j\257?\307\277\317\270p \264?v\333\205\346:\215\264?\305\2171w-!\307?\237\315\252\317\325V\304?G8-x\321W\270?;\001M\204\rO\277?\0358gDio\300?F*\214-\0049\270?\227\305\304\346\343\332\270?\311Y\330\323\016\177\255?\367\344a\241\3264\257?\027}\005i\306\242\261?Nb\020X9\264\300?\206Z\323\274\343\024\275?8\276\366\314\222\000\245?\226!\216uq\033\275?\324\324\262\265\276H\270?G8-x\321W\270?9\321\256B\312O\252?\202\342\307\230\273\226\300?\303\365(\\\217\302\305?\216uq\033\r\340\275?\372\355\353\3009#\272?m\377\312J\223R\260?\257\353\027\354\206m\263?Nb\020X9\264\300?\362\260Pk\232w\304?\257_\260\033\266-\252?\214g\320\320?\301\265?\267(\263A&\031\261?\035Zd;\337O\305?\256B\312O\252}\262?\367z\367\307{\325\252?al!\310A\t\243?\331=yX\2505\275?\274t\223\030\004V\276?\245\275\301\027&S\305?\226C\213l\347\373\271?\035Zd;\337O\275?\237$]3\371f\253?uv28J^\255?od\036\371\203\201\267?\024?\306\334\265\204\304?:#J{\203/\264?\345\n\357r\021\337\261?\014\216\222W\347\030\260?\201\225C\213l\347\303?\362Y\236\007wg\255?\327\330%\252\267\006\246?Mg\'\203\243\344\245?q\033\r\340-\220\300?\t\371\240g\263\352\303?\0162\311\310Y\330\223?P\210\200C\250R\243?\307):\222\313\177\310?r\212\216\344\362\037\322?\237\002`<\203\206\266?\377!\375\366u\340\264?\003\t\212\037c\356\272?\231*\030\225\324\t\250?Y\022\240\246\226\255\265?\305rK\253!q\257?`\315\001\2029z\254?\341\227\372yS\221\262?\245,C\034\353\342\316?g~5\007\010\346\260?\033G\254\305\247\000\230?\341\013\223\251\202Q\301?\362\322Mb\020X\311?\232\3534\322Ry\253?\017\2343\242\2647\300?\345f\270\001\237\037\266?\3274\3578EG\302?\035\311\345?\244\337\276?\301>:u\345\263\264?\227\220\017z6\253\276?[B>\350\331\254\312?\376e\367\344a\241\306?h\263\352s\265\025\273?\262)Wx\227\213\270?\245\302\330B\220\203\262?P\302L\333\277\262\262?$\227\377\220~\373\302?\275\343\024\035\311\345\257?7\032\300[ A\301?D\213l\347\373\251\261?\272k\t\371\240g\303?-!\037\364lV\275?\326\305m4\200\267\300?B\317f\325\347j\303?\264Y\365\271\332\212\275?\347tYLl>\256?\326\305m4\200\267\300?!\260rh\221\355\274??\221\'I\327L\266?2\346\256%\344\203\276?\371\203\201\347\336\303\265?\373:p\316\210\322\276?RD\206U\274\221\251?j\244\245\362v\204\263?\334\334\230\236\260\304\263?\346?\244\337\276\016\274?JA\267\2274F\263?\202sF\224\366\006\307?\2201w-!\037\304?\2412\376}\306\205\243?\261mQf\203L\242?t$\227\377\220~\273?\005i\306\242\351\354\244?\017\013\265\246y\307\261?+\366\227\335\223\207\305?\220\275\336\375\361^\265?)\355\r\2760\231\272?\223\251\202QI\235\300?~\214\271k\t\371\260?\036\341\264\340E_\241?\366(\\\217\302\365\300?[\266\326\027\tm\261?\032\300[ A\361\303?\212\002}\"O\222\256?\',\361\200\262)\247?&S\005\243\222:\301?\333P1\316\337\204\262?\005\300x\006\r\375\263?\255i\336q\212\216\304?\316\036h\005\206\254\256?&\344\203\236\315\252\307?J{\203/L\246\272?\357\311\303B\255i\276?tF\224\366\006_\300?+\030\225\324\th\312?\352\0044\0216<\315?\222\\\376C\372\355\323?B>\350\331\254\372\304?_\007\316\031Q\332\273?C\034\353\3426\032\260?A\361c\314]K\300?\342\314\257\346\000\301\254?\202sF\224\366\006\267?\373\313\356\311\303B\275?>\350\331\254\372\\\275?\024\005\372D\236$\265?d\307F ^\327\257?\307):\222\313\177\300?1\010\254\034Zd\233?\2652\341\227\372y\263?\322o_\007\316\031\311?R\325\004Q\367\001\250?\314\321\343\3676\375\261?L\246\nF%u\262?3\371f\233\033\323\243?\377\255d\307F \256?\220\367\252\225\t\277\244?;k\267]h\256\263?)\355\r\2760\231\302?\361\364JY\2068\246?L\246\nF%u\302?\033\236^)\313\020\307?\330\360\364JY\206\270?\204\022f\332\376\225\245?R\'\240\211\260\341\271?\271\210\357\304\254\027\243?yX\2505\315;\276?N\013^\364\025\244\251?\371\240g\263\352s\305?\275o|\355\231%\271?h?RD\206U\264?m>\256\r\025\343\254?[=\'\275o|\265?\322\343\3676\375\331\257?$\234\026\274\350+\250?dX\305\033\231G\256?}\320\263Y\365\271\252?J\357\033_{f\261?\334h\000o\201\004\305?\205|\320\263Y\365\271?I\235\200&\302\206\307?\233\341\006|~\030\261?\337\025\301\377V\262\263?9\314\227\027`\037\255?\030\tm9\227\342\252?+\000\3063h\350\237?7\246\',\361\200\242?\001\336\002\t\212\037\243?\204%\036P6\345\252?\036\247\350H.\377\241?\360\242\257 \315X\264?\035\346\313\013\260\217\256?\035 \230\243\307\357\255?\032\335A\354L\241\243?\212T\030[\010r\240?F\224\366\006_\230\274?\256\266b\177\331=\311?\035\304\316\024:\257\241?\342\351\225\262\014q\274?\224\274:\307\200\354\265?Z\273\355Bs\235\266?\000\000\000\000\000\000\310?o\360\205\311T\301\260?\255\300\220\325\255\236\263?\321\226s)\256*\253?v\025R~R\355\243?\303\323+e\031\342\300?\225\324\th\"l\300?x\013$(~\214\301?\315\314\314\314\314\314\274?_\357\376x\257Z\261?\027\202\034\2240\323\246?\210K\216;\245\203\245?F%u\002\232\010\273?\337\340\013\223\251\202\271?\374\030s\327\022\362\301?\251\336\032\330*\301\262?\225\324\th\"l\300?\270\257\003\347\214(\275?V+\023~\251\237\267?a\310\352V\317I\267?k\232w\234\242#\301?\335^\322\030\255\243\262?\373\000\2446qr\267?\321\256B\312O\252\255?\t\371\240g\263\352\263?m\312\025\336\345\"\256?\035\311\345?\244\337\276?\240\211\260\341\351\225\242?\212\037c\356ZB\316?\002\274\005\022\024?\316?\374o%;6\002\271?\\\254\250\3014\014\257?\030&S\005\243\222\272?\305\376\262{\362\260\300?u\352\312gy\036\254?L2r\026\366\264\263?X\255L\370\245~\256?\211A`\345\320\"\233?\033*\306\371\233P\260?^\277`7l[\264?Y\022\240\246\226\255\265?\357=\\r\334)\255?2w-!\037\364\274?>\350\331\254\372\\\305?\221\355|?5^\262?^.\342;1\353\265?\027\267\321\000\336\002\311?\232\010\033\236^)\303?\343\374M(D\300\261?1\010\254\034Zd\303?\226\262\014q\254\213\273?6qr\277CQ\260?+\030\225\324\th\302?sh\221\355|?\305?5c\321tv2\250?P\210\200C\250R\263?\247y\307):\222\313?\342\351\225\262\014q\274?VC\342\036K\037\262?d]\334F\003x\273?\013F%u\002\232\300?\301\312\241E\266\363\265?\"7\303\r\370\374\260?\236\352\220\233\341\006\264?\226\267#\234\026\274\250?\024?\306\334\265\204\274?;p\316\210\322\336\300?\255\335v\241\271N\263?\2073\277\232\003\004\263?<N\321\221\\\376\303?\364lV}\256\266\312?\320a\276\274\000\373\270?\212$z\031\305r\253?>\350\331\254\372\\\275?\332\254\372\\m\305\266?(\270XQ\203i\250?+\000\3063h\350\257??\306\334\265\204|\320?-\tPS\313\326\252?\270\006\266J\2608\264?\221IF\316\302\236\266?,H3\026Mg\247?\360\026HP\374\030\263?\336<\325!7\303\265?\'\332UH\371I\265?\305\376\262{\362\260\300?i\251\274\035\341\264\260?Nz\337\370\3323\253?\230\243\307\357m\372\263?\003\220\332\304\311\375\256?=\n\327\243p=\272?k+\366\227\335\223\247?Dio\360\205\311\264?\233r\205w\271\210\257?\007\316\031Q\332\033\304?\321\256B\312O\252\255?\007\346\350\361{\233\256?\334\334\230\236\260\304\263?9\326\305m4\200\307?\237<,\324\232\346\275?>\350\331\254\372\\\275?\367\222\306h\035U\265?\2721=a\211\007\244?t\265\025\373\313\356\271?\362Y\236\007wg\255?\032\335A\354L\241\243?\272\017@j\023\'\247?{\024\256G\341z\314?*\251\023\320D\330\300?W\354/\273\'\017\303?\017\013\265\246y\307\301?\316\337\204B\004\034\262?S\005\243\222:\001\275?\003\225\361\3573.\264?X\3122\304\261.\256?\2068\326\305m4\260?m[\224\331 \223\254?\003x\013$(~\274?\300[ A\361c\274?\336\375\361^\2652\261?\361\272~\301n\330\246?\322\000\336\002\t\212\277?EdX\305\033\231\267?\031\342X\027\267\321\300?RI\235\200&\302\266?+\207\026\331\316\367\263?"
      }
    }
  }
}
node {
  name: "tensors/component_4"
  op: "Const"
  device: "/device:CPU:0"
  attr {
    key: "_output_shapes"
    value {
      list {
        shape {
          dim {
            size: 449
          }
        }
      }
    }
  }
  attr {
    key: "dtype"
    value {
      type: DT_DOUBLE
    }
  }
  attr {
    key: "value"
    value {
      tensor {
        dtype: DT_DOUBLE
        tensor_shape {
          dim {
            size: 449
          }
        }
        tensor_content: "$EdX\305\033\251?\014{\332\341\257\311\212?\303i\301\213\276\202\244?\271\210\357\304\254\027\263?\372D\236$]3\231?\3436\032\300[ \241? \352>\000\251M\214?\024W\225}W\004\237?Xni5$\356\241?\013\230\300\255\273y\262?\220\330\356\036\240\373\202?{\367\307{\325\312\244?!\223\214\234\205=\265?7\216X\213O\001\240?\025\221a\025od\256?\241g\263\352s\265\245?\225\016\326\3779\314\207?\007\266J\2608\234\231?\3402\247\313bb\223?\237<,\324\232\346\215?\001\301\034=~o\223?\300\004n\335\315S\215?\200\317\017#\204G\253?F\231\r2\311\310\211?/\372\n\322\214E\223?\244k&\337ls\243?*:\222\313\177H\237?9@0G\217\337\233?\004s\364\370\275M\237?\312\310Y\330\323\016\237?\021S\"\211^F\241?\227\213\370N\314z\241?\2549@0G\217\237?\"7\303\r\370\374\240?uv28J^\235?-}\350\202\372\226\231?\227\220\017z6\253\236?\020\230\207L\371\020t?\235\364\276\361\265g\206?Z\236\007wg\355\226?o\273\320\\\247\221\206?\343\337g\\8\020\222?\376C\372\355\353\300\271?#gaO;\374\225?\325[\003[%X\214?3\277\232\003\004s\244?\227\305\304\346\343\332\220?\262c#\020\257\353\227?}\350\202\372\2269\215? \352>\000\251M\214?\246\264\376\226\000\374\203?_c\227\250\336\032\210?a\032\206\217\210)\201?\031\312\211v\025R\236?\016\2760\231*\030\205?\274\262\013\006\327\334\201?\351\016bg\n\235\227?\352\0044\0216<\235?V\325\313\3574\231\201?^K\310\007=\233\205?\340\020\252\324\354\201\206?\343\215\314#\1770\240?\343\337g\\8\020\262?D\243;\210\235)\244?\257\010\376\267\222\035\233?\235\200&\302\206\247\227?\r\340-\220\240\370\221??\253\314\224\326\337\202?\016g~5\007\010\266?9Cq\307\233\374v?&p\353n\236\352\220?A\016J\230i\373\267?\342\314\257\346\000\301\254?0L\246\nF%\225?U\373t<f\240\222?\002\237\037F\010\217\226?\030>\"\246D\022\235?h\256\323HK\345\255?V}\256\266b\177\261?\374o%;6\002\221?*oG8-x\221?\347\373\251\361\322M\242?J\223R\320\355%\255?`\345\320\"\333\371\256?X4\235\235\014\216\222?\337\032\330*\301\342\220?z;\302i\301\213\236?\"\211^F\261\334\222?\236\322\301\372?\207\231?I\3642\212\345\226\246?\350\336\303%\307\235\222?\273a\333\242\314\006\231?\340\204B\004\034B\205?\014\037\021S\"\211\216?\276\301\027&S\005\243?\025R~R\355\323\241?\023\325[\003[%\210?.\347R\\U\366\215?\314]K\310\007=\213?\367u\340\234\021\245\235?~t\352\312gy\216?\027\274\350+H3\206?H\331\"i7\372x?\006\330G\247\256|\226?\324e1\261\371\270\226?6Y\243\036\242\321\235?\235\200&\302\206\247\227?\214\204\266\234Kq\205?\251\2377\025\2510\266?O\307c\006*\343\217?\274\221y\344\017\006\236?ni5$\356\261\244?r3\334\200\317\017\263?\217\210)\221D/\243?E\273\n)?\251\226?\225`q8\363\253\231?X\2505\315;N\261?t\230//\300>\232?^\277`7l[\244?)\t\211\264\215?\201?q\217\245\017]P\217?\210K\216;\245\203\225?\356\266\013\315u\032\271?\303_\2235\352!\212?\347\214(\355\r\276\240?\n\240\030Y2\307\202?\320\270p $\013\210?\020@j\023\'\367\233?\350\331\254\372\\m\245?\202\377\255d\307F\240?\330\266(\263A&\231?\025\221a\025od\216?\005\300x\006\r\375\223?\202sF\224\366\006\217?9\314\227\027`\037\215?\256\360.\027\361\235\210?lxz\245,C\214?\237\310\223\244k&\217?\2505\315;N\321\241?\1775\007\010\346\350\241?\2077k\360\276*w?\0162\311\310Y\330\223?\207\247W\3122\304\221?7\216X\213O\001\220?\"\303*\336\310<\222?g\270\001\237\037F\250?D4\272\203\330\231\242?cE\r\246a\370\250?\022\017(\233r\205\227?\223\306h\035UM\220?\210\235)t^c\207?B\262\200\t\334\272\253?|\233\376\354G\212\270?\364\211<I\272f\202?\272\367p\311q\247\224?\222\343N\351`\375\217?\314\013\260\217N]\251?:z\374\336\246?\233?\345d\342VA\014\204?\240rL\026\367\037y?\033\r\340-\220\240\230?*:\222\313\177H\237?\214\326Q\325\004Q\227?\250\306K7\211A\240?[|\n\200\361\014\232?VId\037dY\200?e\376\3217i\032\204?\320D\330\360\364J\231?z\302\022\017(\233\242?\346?\244\337\276\016\214?\355\r\2760\231*\210?0\022\332r.\305\205?M\271\302\273\\\304\227?\016\204d\001\023\270\225?\371\3323K\002\324\204?\307\321\034Y\371e\200?\224\202n/i\214\266?\203L2r\026\366\244?\267\0148K\311rb?\326\251\362=#\021z?_\2652\341\227\372\231?=\270;k\267]\250?\225H\242\227Q,\227?\203\372\2269]\026\243?6\315;N\321\221\214?\372~j\274t\223\210?C\344\364\365|\315\202?fL\301\032g\323\201?\275\345\352\307&\371\201?\327\236Y\022\240\246\226?io\360\205\311T\301?\370\302d\252`T\222?\251/K;5\227{?r\371\017\351\267\257\243?\232_\315\001\2029\252?q8\363\2539@\220?\207\341#bJ$\241?\257\010\376\267\222\035\253?\036P6\345\n\357\242?\264T\336\216pZ\220?H\212\310\260\2127\222?\002CV\267zN\232?d\321tv28\252?\301\034=~o\323\237?\2132\033d\222\221\223?\365\025\244\031\213\246\223?\300`7l[\224\211?H\311\253s\014\310\216?3\254\342\215\314#\237?\252}:\0363P\211?\224\373\035\212\002}\242?\035\304\316\024:\257\221?\211\315\307\265\241b\234?\237<,\324\232\346\265?\255\372\\m\305\376\242?\265\340E_A\232\241?f\275\030\312\211v\245?\336q\212\216\344\362\237?`q8\363\2539\240?\372\2269]\026\023\233?z6\253>W[\221?R\362\352\034\003\262\227?x\351&1\010\254\214?\345\233mnLO\230?$-\225\267#\234\206?X!\345\'\325>\215?\311\004\374\032I\202\200?z\215]\242zk\240?\314\271\024W\225}\227?82\217\374\301\300\243?\344\3676\375\331\217\224?\004\342u\375\202\335\220?0\233\000\303\362\347{?\350\366\222\306h\035\225?\224\366\006_\230L\205?\373\"\241-\347R\214?T\350\274\306.Q\235?\265q\304Z|\n\240?\247\350H.\377!\235?\024?\306\334\265\204\234?\345\'\325>\035\217\211?\213\370N\314z1t?dX\305\033\231G\256?\310$#gaO\233?\021\215\356 v\246\240?\211\315\307\265\241b\214?\3058\177\023\n\021\220?\305wb\326\213\241\254?Q\332\033|a2\205?\330\266(\263A&\211?\340\370\3323K\002\244?\344\203\236\315\252\317\205?\277CQ\240O\344\251?H\311\253s\014\310\216?<\337O\215\227n\222?\345ypw\326n\233?\204\rO\257\224e\250?\314\271\024W\225}\247?\250W\3122\304\261\256?x\321W\220f,\232?\2348\271\337\241(\220?\327\236Y\022\240\246\206?\254\220\362\223j\237\256?/4\327i\244\245\202?\027\324\267\314\351\262\210?\370;\024\005\372D\216?/Q\2755\260U\242?\210)\221D/\243\230?Z\330\323\016\177M\226?\307):\222\313\177\250?\025\221a\025odn?|,}\350\202\372\206?\023a\303\323+e\251?\231\365b(\'\332\205?\215\234\205=\355\360\207?X\255L\370\245~\216?\335\323\325\035\213m\202?\252ek}\221\320\206?\377?N\2300\232u?\2549@0G\217\217?\335\357P\024\350\023\231?F=D\243;\210\215?M-[\353\213\204\226?\337\303%\307\235\322\241?+j0\r\303G\244?w\327\331\220\177f\200?\331B\220\203\022f\252?\226\262\014q\254\213\213?f\332\376\225\225&\265?6\315;N\321\221\214?\314]K\310\007=\273?\177\331=yX\250\225?\303i\301\213\276\202\224?\270\036\205\353Q\270\216?\355\r\2760\231*\210?\324\017\352\"\205\262\200?\340(yu\216\001\211?\2760\231*\030\225\204?\335\315S\035r3\214?\"v\246\320y\215\215?\240T\373t<f\240?\000\214g\320\320?\241?|\270\344\270S:\250?K\351\231^b,\203?cz\302\022\017(\233?\037\200\324&N\356\227?\274\223O\217m\031\200?\"\342\346T2\000t?\302\303\264o\356\257n?h>\347n\327Ks?\234P\210\200C\250\202?\302mm\341y\251x?\325[\003[%X\234?S\226!\216uq\213?\010\224M\271\302\273\214?\336\217\333/\237\254h?\247%VF#\237w?\"7\303\r\370\374\220?;p\316\210\322\336\260?\324\237\375H\021\031\206?\365JY\2068\326\245?\003\225\361\3573.\214?M\333\277\262\322\244\224?0\360\334{\270\344\230?\322\350\016bg\n\215?sI\325v\023|\203?\002eS\256\360.\207?\234\344G\374\2125|?\334K\032\243uT\225?{\210Fw\020;\243?\223\251\202QI\235\240?\2657\370\302d\252\240?$-\225\267#\234\206?ikD0\016.}?\002B\353\341\313D\201?\364\211<I\272f\222?|\362\260Pk\232\227?\207\334\0147\340\363\243??\313\363\340\356\254\215?\036\334\235\265\333.\224?P\0010\236AC\237?\2765\260U\202\305\241?\rl\225`q8\223?\312\375\016E\201>\241?,\237\345ypw\206?|\325\312\204_\352\247?Qf\203L2r\206?\325s\322\373\306\327\216?\200\325\221#\235\201\201?9b->\005\300\230?#\203\334E\230\242|?\355\323\361\230\201\312\260?E\022\275\214b\271\245?0\360\334{\270\344\230?\326\213\241\234hW\241?\220\240\3701\346\256\245?\375M(D\300!\244?/O\347\212RB\200?\253\347\244\367\215\257\235?\345x\005\242\'e\202?\275qR\230\3678s?\251\023\320D\330\360\224?\227\305\304\346\343\332\220?]m\305\376\262{\222?\232\231\231\231\231\231\211?j\244\245\362v\204\223?\037\200\324&N\356\247???\214\020\036m\214?\365\363\246\"\025\306\206?m>\256\r\025\343\234?\312\370\367\031\027\016\244?\357\311\303B\255i\216?1\010\254\034Zd\233?\272k\t\371\240g\223?q8\363\2539@\220?X4\235\235\014\216\222?p\353n\236\352\220\263?\210)\221D/\243\210?\346Ws\200`\216\236?{\017\227\034wJ\247?mQf\203L2\222?#O\222\256\231|\223?\324+e\031\342X\247?\2343\242\2647\370\242?\231//\300>:\225?\202n/i\214\326\221?\316\001\2029z\374\236?B>\350\331\254\372\214?\246a\370\210\230\022\261?\'\367;\024\005\372\244?\243#\271\374\207\364\213?\375M(D\300!\224?\010 \265\211\223\373\235?\026\336\345\"\276\023\243?2\033d\222\221\263\220?5\265l\255/\022\212?\'N\356w(\n\224?\005\213\303\231_\315\241?K<\240l\312\025\216?#\025\306\026\202\034\224?al!\310A\t\243?cb\363qm\250\210?Q\245f\017\264\002\243?p_\007\316\031Q\212?q\221{\272\272c\201?\231\365b(\'\332\225?0\266\020\344\240\204\211?\307\272\270\215\006\360\246?\211\315\307\265\241b\234?\235\200&\302\206\247\227?)\347\213\275\027_\204?\177\301n\330\266(\203?\303\353\372\005\273a\233?\342\314\257\346\000\301\234?}\350\202\372\2269\215?P\0010\236AC\237?\207\341#bJ$\221?\323jH\334c\351\243?\256|\226\347\301\335\211?\035\260\253\311SV\203?\203L2r\026\366\224?\232%\001jj\331\252?\234\242#\271\374\207\224?N\351`\375\237\303\234?vO\036\026jM\223?\267\t\367\312\274Uw?\"2\254\342\215\314\243?\221\203\022f\332\376\225?k-\314B;\247y?\320\270p $\013\210?\035r3\334\200\317\257?;p\316\210\322\336\240?>yX\2505\315\233?<\367\036.9\356\244?\261\341\351\225\262\014\221?e\337\025\301\377V\222?\023y\222t\315\344\213?\366\227\335\223\207\205\212?w-!\037\364l\206?R(\013__\353\202?t\200`\216\036\277\247?\037.9\356\224\016\246?w\271\210\357\304\254\207?\246\226\255\365EB\213?\336q\212\216\344\362\217?#\333\371~j\274\224?\340\276\016\2343\242\224?A\016J\230i\373\207?\361h\343\210\265\370\224?"
      }
    }
  }
}
node {
  name: "tensors/component_5"
  op: "Const"
  device: "/device:CPU:0"
  attr {
    key: "_output_shapes"
    value {
      list {
        shape {
          dim {
            size: 449
          }
        }
      }
    }
  }
  attr {
    key: "dtype"
    value {
      type: DT_DOUBLE
    }
  }
  attr {
    key: "value"
    value {
      tensor {
        dtype: DT_DOUBLE
        tensor_shape {
          dim {
            size: 449
          }
        }
        tensor_content: "\224\366\006_\230L\345?4\200\267@\202\342\307?^\272I\014\002+\333?)\313\020\307\272\270\353?=\n\327\243p=\312?\353s\265\025\373\313\340??\306\334\265\204|\320?\343\307\230\273\226\220\327?*:\222\313\177H\341?!\260rh\221\355\360?_\007\316\031Q\332\303?\336q\212\216\344\362\341?B>\350\331\254\372\330?\033\r\340-\220\240\310?\270\036\205\353Q\270\350?\316\210\322\336\340\013\345?\336q\212\216\344\362\307?,e\031\342X\027\333?)\\\217\302\365(\324?\250W\3122\304\261\306?\207\247W\3122\304\321?O\257\224e\210c\275?\223:\001M\204\r\343?\244p=\n\327\243\320?.\220\240\3701\346\326?\203/L\246\nF\331?\031s\327\022\362A\345?\360\026HP\374\030\313?Zd;\337O\215\343?\036\247\350H.\377\321?\221\017z6\253>\333?{\024\256G\341z\342?\236^)\313\020\307\326?J\014\002+\207\026\345?\030&S\005\243\222\342?%\006\201\225C\213\330?\001\336\002\t\212\037\333?f\362\31567\246\247?\205_\352\347ME\252?\n\327\243p=\n\333?\203QI\235\200&\312?\277}\0358gD\321?\212\216\344\362\037\322\347?\023\362A\317f\325\327?\007\360\026HP\374\330?}?5^\272I\340?\002\232\010\033\236^\301?\323\336\340\013\223\251\332?\270@\202\342\307\230\313?\237<,\324\232\346\305?\004\347\214(\355\r\266?\344\024\035\311\345?\304?\006\273a\333\242\314\266?\327\022\362A\317f\315?\370\302d\252`T\312?4\0216<\275R\266?\325\th\"lx\326?\333\371~j\274t\333?m9\227\342\252\262\257?Gr\371\017\351\267\277?Ral!\310A\271?\262.n\243\001\274\305?Z\365\271\332\212\375\343?\nh\"lxz\305?Z\365\271\332\212\375\331?\006\022\024?\306\334\325?\224\366\006_\230L\305?\317\362<\270;k\267?V\016-\262\235\357\333?lC\3058\177\023\262?\237<,\324\232\346\315?\347\035\247\350H.\317?a2U0*\251\347?\227\220\017z6\253\326?\363\216St$\227\307?\223\030\004V\016-\312?\273\'\017\013\265\246\301?\363\037\322o_\007\342?\013$(~\214\271\343?\272k\t\371\240g\313?\371\240g\263\352s\305?\323\336\340\013\223\251\336?S\226!\216uq\343?\363\037\322o_\007\322?3\304\261.n\243\311?\0054\0216<\275\312?\320D\330\360\364J\311?\024?\306\334\265\204\324?I\235\200&\302\206\317?i\000o\201\004\305\323?\355\236<,\324\232\306?\000o\201\004\305\217\311?6\253>W[\261\277?\357\311\303B\255i\306?.\220\240\3701\346\332?J{\203/L\246\326?0G\217\337\333\364\267?q8\363\2539@\270?6\253>W[\261\307? A\361c\314]\323?;p\316\210\322\336\310?\332\254\372\\m\305\276?V\202\305\341\314\257\266?\201\004\305\2171w\315?\276\301\027&S\005\303?yX\2505\315;\332?\240\032/\335$\006\321?\3436\032\300[ \311?\300[ A\361c\346?\007\316\031Q\332\033\314?d;\337O\215\227\306?\315\314\314\314\314\314\314?\204\236\315\252\317\325\332?\265\246y\307):\312?\212\037c\356ZB\316?0\273\'\017\013\265\316?\"\216uq\033\r\310?x\351&1\010\254\334?\205\353Q\270\036\205\337?\332\254\372\\m\305\276?d;\337O\215\227\316?\245\275\301\027&S\315?\232\010\033\236^)\333?\245,C\034\353\342\306?\302\206\247W\3122\320?H\341z\024\256G\301?L\246\nF%u\322?B>\350\331\254\372\314?\210\364\333\327\201s\322?\022\024?\306\334\265\330?%\006\201\225C\213\320?\206\311T\301\250\244\316?Zd;\337O\215\323?m\305\376\262{\362\310?\037\205\353Q\270\036\315?t$\227\377\220~\303?p_\007\316\031Q\272?\016\2760\231*\030\305?\373\\m\305\376\262\313?\303d\252`TR\307?\250\373\000\2446q\262?W[\261\277\354\236\314?\307\272\270\215\006\360\306?\312T\301\250\244N\320?;\001M\204\rO\277?\007\316\031Q\332\033\320?\034|a2U0\332?\030\225\324\th\"\320?\033/\335$\006\201\321?\324+e\031\342X\307?}?5^\272I\274?/\335$\006\201\225\333?v\340\234\021\245\275\321?\363\310\037\014<\367\266?\377!\375\366u\340\314?\245,C\034\353\342\306?\336\002\t\212\037c\326?\027\331\316\367S\343\305?\322\000\336\002\t\212\277?\317\275\207K\216;\265?\017\2343\242\2647\310? \322o_\007\316\311?\223\251\202QI\235\330?\260\003\347\214(\355\315?\003\t\212\037c\356\326?\0216<\275R\226\271?\273\270\215\006\360\026\300?\001\336\002\t\212\037\313?O\215\227n\022\203\330?2w-!\037\364\304?\2068\326\305m4\300?\265\025\373\313\356\311\303?\003\t\212\037c\356\326?\016\2760\231*\030\265?\246D\022\275\214b\261?\377&\024\"\340\020\262?\341z\024\256G\341\322?\312\303B\255i\336\335?m\2132\033d\222\241?p\316\210\322\336\340\253?\2505\315;N\321\331?0*\251\023\320D\350?l\t\371\240g\263\326?\317\367S\343\245\233\304?[\323\274\343\024\035\325?\331_vO\036\026\272?\262\235\357\247\306K\317?:\264\310v\276\237\272?\232\231\231\231\231\231\271?\037\205\353Q\270\036\305?\233U\237\253\255\330\355?\262\272\325s\322\373\266?5\007\010\346\350\361\233?\256\330_vO\036\336?:\222\313\177H\277\335?f\210c]\334F\303?\263\352s\265\025\373\323?\3436\032\300[ \311?\316\252\317\325V\354\341?\205|\320\263Y\365\331?\372\355\353\3009#\312?\027\331\316\367S\343\325?\227\220\017z6\253\332?\227\220\017z6\253\340?\000\221~\373:p\316?\341\013\223\251\202Q\325?\316\252\317\325V\354\277?\276\301\027&S\005\303?\261\277\354\236<,\334?\263\352s\265\025\373\313?\343\245\233\304 \260\322?\252\361\322Mb\020\310?\272k\t\371\240g\303?O\036\026jM\363\306?\321\221\\\376C\372\331?,\207\026\331\316\367\333?t$\227\377\220~\323?R\'\240\211\260\341\301?Nb\020X9\264\324?\361\364JY\2068\332?&\344\203\236\315\252\317?\277}\0358gD\321?<\337O\215\227n\302?x\351&1\010\254\334?\200\267@\202\342\307\300?\205\353Q\270\036\205\303?\243\222:\001M\204\275?\274\226\220\017z6\327?%u\002\232\010\033\326?\360\026HP\374\030\341?\005\305\2171w-\331?\370\302d\252`T\302?\252`TR\'\240\261?\010=\233U\237\253\321?\353\3426\032\300[\270? A\361c\314]\303?+\030\225\324\th\332?M\204\rO\257\224\315?\223:\001M\204\r\317?\201\225C\213l\347\327?\330\360\364JY\206\300?\234\334\357P\024\350\263?\202sF\224\366\006\337?L\246\nF%u\302?\255\372\\m\305\376\322?N\321\221\\\376C\272?vO\036\026jM\303?\326\305m4\200\267\342?\333\212\375e\367\344\301?\344\024\035\311\345?\304?\005\243\222:\001M\324?\320\263Y\365\271\332\272?u\223\030\004V\016\343?b\020X9\264\310\316?\227\377\220~\373:\324?\377!\375\366u\340\324?\223:\001M\204\r\341?\031\342X\027\267\321\334?\351\267\257\003\347\214\340? \322o_\007\316\341?\014\002+\207\026\331\322?\276\301\027&S\005\303?E\330\360\364JY\322?\305\2171w-!\307?Y\2068\326\305m\320?]\376C\372\355\353\320?\177j\274t\223\030\320?\277\237\032/\335$\306?M\363\216St$\307?R\270\036\205\353Q\320?F\231\r2\311\310\251?\356\353\3009#J\303?=\n\327\243p=\336?x\234\242#\271\374\267?=,\324\232\346\035\307?\261KTo\rl\265?\000\373\350\324\225\317\262?\030\004V\016-\262\275?4\026Mg\'\203\263?\214J\352\0044\021\306?\2760\231*\030\225\330?\303\365(\\\217\302\265?<N\321\221\\\376\327?\256\330_vO\036\336?\177\331=yX\250\315?\332\341\257\311\032\365\260?\342X\027\267\321\000\322?>\350\331\254\372\\\275?\363\216St$\227\307?|~\030!<\332\270?\025\035\311\345?\244\317?1\010\254\034Zd\323?\325\th\"lx\312?\252\202QI\235\200\306?HP\374\030s\327\302?S\226!\216uq\273?\327\335<\325!7\263?\265\333.4\327i\264?\224\207\205Z\323\274\313?\350\237\340bE\r\266?\201&\302\206\247W\332?\310\007=\233U\237\313?\335\265\204|\320\263\325?}\320\263Y\365\271\272?.\220\240\3701\346\306?$(~\214\271k\301?&S\005\243\222:\301?\014{\332\341\257\311\252?\305\003\312\246\\\341\255?\035 \230\243\307\357\255?O@\023a\303\323\273?1|DL\211$\262?lxz\245,C\314?U0*\251\023\320\304?\247\\\341].\342\263?\226}W\004\377[\251?\\\010rP\302L\253?\220\240\3701\346\256\321?x\234\242#\271\374\327?9\234\371\325\034 \250?i\221\355|?5\316?\352\225\262\014q\254\303?\255i\336q\212\216\314?\253>W[\261\277\334?=\233U\237\253\255\310?\202sF\224\366\006\277?\300[ A\361c\274?z\245,C\034\353\262?\225e\210c]\334\322?h\263\352s\265\025\313?\360\205\311T\301\250\334?\031\342X\027\267\321\324?T\251\331\003\255\300\270?\246a\370\210\230\022\271?\225H\242\227Q,\267?\3274\3578EG\312?H\341z\024\256G\311?j\336q\212\216\344\336?\374\030s\327\022\362\301?k\232w\234\242#\321?\211\322\336\340\013\223\325?\006\022\024?\306\334\325?}?5^\272I\314?6<\275R\226!\326?%\006\201\225C\213\274?\251\023\320D\330\360\304?X\2505\315;N\301?e\031\342X\027\267\311?x\351&1\010\254\274?T\343\245\233\304 \310?\025\306\026\202\034\224\260?\241\3701\346\256%\340?\217St$\227\377\342?G\003x\013$(\316?2U0*\251\023\300?\252`TR\'\240\311?\027\267\321\000\336\002\321? \322o_\007\316\271?\336q\212\216\344\362\277?\320\263Y\365\271\332\272?+\274\313E|\'\246?-!\037\364lV\305?\322\000\336\002\t\212\307?\222\313\177H\277}\305?\371\240g\263\352s\305?\357\311\303B\255i\316?\006\022\024?\306\334\325?-\262\235\357\247\306\313?f\367\344a\241\326\304?w\276\237\032/\335\330?B`\345\320\"\333\335?yX\2505\315;\306?\223\030\004V\016-\322?Zd;\337O\215\323?\300\354\236<,\324\312?R\270\036\205\353Q\320?\232\010\033\236^)\327?J{\203/L\246\302?\350j+\366\227\335\323?\210c]\334F\003\356?,e\031\342X\027\317?\002\232\010\033\236^\311?6\315;N\321\221\324?\255\372\\m\305\376\326?\311v\276\237\032/\321?[\261\277\354\236<\304?=,\324\232\346\035\317?\343\307\230\273\226\220\277?\321\221\\\376C\372\321?.\220\240\3701\346\316?\037\205\353Q\270\036\305?\370S\343\245\233\304\300?\354/\273\'\017\013\331?A\361c\314]K\342?\250W\3122\304\261\306?\3019#J{\203\277?\246\233\304 \260r\320?o\201\004\305\2171\307?\"\216uq\033\r\310?\235\021\245\275\301\027\306?\345a\241\3264\357\342?)\\\217\302\365(\304?\010=\233U\237\253\315?9EGr\371\017\311?\2446qr\277C\261?\354/\273\'\017\013\305?{\203/L\246\n\306?\200\267@\202\342\307\310?\201\225C\213l\347\327?`\345\320\"\333\371\306?4\242\2647\370\302\304?\2343\242\2647\370\302?e\252`TR\'\310?\234\304 \260rh\325?Ral!\310A\271?<N\321\221\\\376\313?C\255i\336q\212\276?\"\375\366u\340\234\331?6\315;N\321\221\304?\257\224e\210c]\274?\t\033\236^)\313\310?\335$\006\201\225C\327?-\262\235\357\247\306\313?0*\251\023\320D\324?X\2505\315;N\301?\360m\372\263\037)\262?\"lxz\245,\323?\241g\263\352s\265\305?d\307F ^\327\257?\202\342\307\230\273\226\270?\344\245\233\304 \260\346?\336\223\207\205Z\323\320?\300\354\236<,\324\322?\013\265\246y\307)\326?\327\243p=\n\327\303?\204\236\315\252\317\325\326?0L\246\nF%\305?\021\307\272\270\215\006\300?\331=yX\2505\275?\267\321\000\336\002\t\272?r\212\216\344\362\037\332?\032Q\332\033|a\332?B\317f\325\347j\273?\036\033\201x]\277\260?9EGr\371\017\321?\303d\252`TR\307?2U0*\251\023\330?2U0*\251\023\310?2w-!\037\364\320?"
      }
    }
  }
}
node {
  name: "tensors/component_6"
  op: "Const"
  device: "/device:CPU:0"
  attr {
    key: "_output_shapes"
    value {
      list {
        shape {
          dim {
            size: 449
          }
        }
      }
    }
  }
  attr {
    key: "dtype"
    value {
      type: DT_DOUBLE
    }
  }
  attr {
    key: "value"
    value {
      tensor {
        dtype: DT_DOUBLE
        tensor_shape {
          dim {
            size: 449
          }
        }
        tensor_content: "\300\354\236<,\324\302?\274\n)?\251\366\261?tF\224\366\006_\300?\003\t\212\037c\356\272?l\t\371\240g\263\272?\367\314\222\0005\265\264?\214l\347\373\251\361\262?\206\311T\301\250\244\256?\250\3431\003\225\361\267?W\347\030\220\275\336\265?3\376}\306\205\003\241?\360\341\222\343N\351\260?W[\261\277\354\236\274?-\317\203\273\263v\253?%\006\201\225C\213\264?\265l\255/\022\332\262?\314z1\224\023\355\252?p_\007\316\031Q\272?\033*\306\371\233P\270?\356\360\327d\215z\250?\233U\237\253\255\330\237?\340\204B\004\034B\225?\232\323e1\261\371\270?\324\237\375H\021\031\266?(\017\013\265\246y\267?t\265\025\373\313\356\301?\352\220\233\341\006|\266?\321\\\247\221\226\312\263?\202\255\022,\016g\266?x\006\r\375\023\\\264?\233U\237\253\255\330\277?d\264\216\252&\210\252?\353s\265\025\373\313\276?\034\010\311\002&p\263?\0162\311\310Y\330\263?\216\036\277\267\351\317\256?\013\315u\032i\251\254?\347\221?\030x\356\235?\253\347\244\367\215\257\235?)yu\216\001\331\253?\261\205 \007%\314\224?->\005\300x\006\255?r\304Z|\n\200\271?d\344,\354i\207\257?O\227\305\304\346\343\252?1\231*\030\225\324\271?:\317\330\227l<x?\'\302\206\247W\312\262?\273?\336\253V&\234?2\341\227\372yS\241?\204\236\315\252\317\325\206?jR\n\272\275\244\221?\377\225\225&\245\240\213?\211A`\345\320\"\273?\212\032L\303\360\021\241?\372\362\002\354\243S\227?f,\232\316N\006\267?\226>tA}\313\264?\334\024\217\213j\021q?\177f\020\037\330\361\177?\263{\362\260Pk\212?\266\237\214\361a\366\202?\020u\037\200\324&\266?4\0216<\275R\226?c\013A\016J\230\261?!\345\'\325>\035\267?\"\002\016\241J\315\216?\204\236\315\252\317\325\226?ffffff\246?\300\004n\335\315S\235?Bx\264q\304Z\264?)\350\366\222\306h\235?\203\206\376\t.V\264?N\356w(\n\364\251?jH\334c\351C\227?X\305\033\231G\376\260?\234\376\354G\212\310\260?\332\316\367S\343\245\273?\234\242#\271\374\207\304?\277\016\2343\242\264\227?\314\363\340\356\254\335\226?\211\265\370\024\000\343\261?\004V\016-\262\235\307?\257%\344\203\236\315\302?\026\336\345\"\276\023\223?2\346\256%\344\203\266?c(\'\332UH\251?\\Z\r\211{,\265?\"lxz\245,\243?\275\030\312\211v\025\262?dX\305\033\231G\236?cz\302\022\017(\263?\257\010\376\267\222\035\233?\362\260Pk\232w\234?Tt$\227\377\220\266?B\312O\252}:\266?\223\221\263\260\247\035\236?\320Cm\033FA\200?\364\375\324x\351&\241?h\256\323HK\345\255?\262\272\325s\322\373\246?\000\000\000\000\000\000\000\000r\212\216\344\362\037\222?\024W\225}W\004\237?\324\267\314\351\262\230\210?\025\306\026\202\034\224\270?\271\374\207\364\333\327\241?\316N\006G\311\253\223?K\310\007=\233U\307?n\335\315S\035r\223?\333m\027\232\3534\222?2\311\310Y\330\323\256?\364\370\275M\177\366\263?\265\253\220\362\223j\237?\026\244\031\213\246\263\223?\344\3676\375\331\217\224?\303G\304\224H\242\227?\325s\322\373\306\327\266?\025\343\374M(D\270?\237\260\304\003\312\246\254?\007B\262\200\t\334\232?X\3122\304\261.\266?\376C\372\355\353\300\311?h\313\271\024W\225\255?x\351&1\010\254\234?\256d\307F ^\207?\363\216St$\227\237?;\351}\343k\317\254?bg\n\235\327\330\265?`vO\036\026j\275?l\004\342u\375\202\235?\301>:u\345\263\264?=\"\246D\022\275\254?p\346Ws\200`\256?\236\322\301\372?\207\261?\215@\274\256_\260\233?:\264\310v\276\237\232?q=\n\327\243p\235?\371f\233\033\323\023\266? F\010\2176\216\250?\000\000\000\000\000\000\000\000\222t\315\344\233m\256?;\245\203\365\177\016\223?;\344f\270\001\237\237?T\343\245\233\304 \200?\000t\230//\300\236?$\227\377\220~\373\262?\"\303*\336\310<\242?\373\"\241-\347R\254?\362$\351\232\3117\213?h\263\352s\265\025\233?\027\274\350+H3\226?>\\r\334)\035\264?DQ\240O\344I\222?L\340\326\335<\325\241?\221\325\255\236\223\336\227?$\227\377\220~\373\272?\035\261\026\237\002`\234?\266\370\024\000\343\031\224?\323\234\274\310\004\374z?\245\210\014\253x#\243?\036\033\201x]\277\270?.\377!\375\366u\300?\331Z_$\264\345\234?\331\323\016\177M\326\270?{Nz\337\370\332\223?\302\213\276\2024c\221?\275\214b\271\245\325\260?l\t\371\240g\263\272?\317k\354\022\325[\243?\214l\347\373\251\361\242?\265\340E_A\232\241?\367\006_\230L\025\274?\373\320\005\365-s\232?\000\000\000\000\000\000\000\000\000\000\000\000\000\000\000\000\365Op\261\242\006\243?\303\236v\370k\262\266?\242\010\251\333\331W^?\314]K\310\007=\213?\231*\030\225\324\t\310?\022\245\275\301\027&\303?\341\227\372yS\221\252?Z*oG8-\230?i\251\274\035\341\264\240?X\215%\254\215\261c?\024\313-\255\206\304\255?KTo\rl\225\240?\347\343\332P1\316\217?\000\251M\234\334\357\220?67\246\',\361\260?\300\004n\335\315S\235?\000\000\000\000\000\000\000\000AH\0260\201[\247?\n\364\211<I\272\266?,\361\200\262)W\230?i\251\274\035\341\264\260?h\313\271\024W\225\255?\240\375H\021\031V\261?u\002\232\010\033\236\256?H\205\261\205 \007\245?\354\335\037\357U+\263?#\333\371~j\274\304?\314\271\024W\225}\267?U\244\302\330B\220\243?Q\367\001Hm\342\244?\005\300x\006\r\375\223?\270@\202\342\307\230\253?VC\342\036K\037\252?\322\306\021k\361)\240?\322\251+\237\345y\270?\202[w\363T\207\214?\321\"\333\371~j\304?\372a\204\360h\343\260?\230\342\252\262\357\212\260?\347\005\330G\247\256\254?\237q\341@H\026\240?\001\331\353\335\037\357\205?\035\003\262\327\273?\266?=~o\323\237\375\260?t\230//\300>\232?\231\236\260\304\003\312\246?@\244\337\276\016\234\223?\230\342\252\262\357\212\260?\330\266(\263A&\231?\376\016E\201>\221\247?\235\014\216\222W\347\210?\230\335\223\207\205Z\243?\323\023\226x@\331\224?\034\266-\312l\220\261?\201\225C\213l\347\273?\232\231\231\231\231\231i?\306\305Q\271\211Zz?\266\204|\320\263Y\265?\212\032L\303\360\021\221?\'\210\272\017@j\223?&\344\203\236\315\252\277?iW!\345\'\325\256?o\273\320\\\247\221\246?\347Ws\200`\216\266?\'\245\240\333K\032\243?\214\020\036m\034\261\206?}\350\202\372\2269\235?\033G\254\305\247\000\230?\345,\354i\207\277\266?\217\344\362\037\322o\237?\376e\367\344a\241\206?8\370\302d\252`\244?aTR\'\240\211\220?t<f\2402\376\235?\370S\343\245\233\304\300?\344\275je\302/\225?\345a\241\3264\357\270?\030!<\3328b\265?u<f\2402\376\265?\007B\262\200\t\334\252?\014\223\251\202QI\275?z\307):\222\313\277?\252`TR\'\240\301?\377\3470_^\200\265?\206U\274\221y\344\267?>\005\300x\006\r\235?\362$\351\232\3117\263?\201!\253[=\'\235?\205\360h\343\210\265\260?R\203i\030>\"\266? ^\327/\330\r\233?\001\331\353\335\037\357\225?aTR\'\240\211\220?\007Z\201!\253[\235?\232\231\231\231\231\231y?K\352\0044\0216\234?_\007\316\031Q\332\273?pw\326n\273\320\214?\nc\013A\016J\250?\370\210\230\022I\364\262?\272\023\354\277\316Mk?B\3475v\211\352\255?_\357\376x\257Z\211?\344\210\265\370\024\000\243?\314E|\'f\275\270?\264\315\215\351\tK\234?|\270\344\270S:\270?\225H\242\227Q,\267?z6\253>W[\241?\251\276\363\213\022\364g?\360\371a\204\360h\243?A\016J\230i\373\207?\351>\000\251M\234\254?9J^\235c@\226?\203\305\341\314\257\346\260?\006\r\375\023\\\254\250?7\032\300[ A\241?\324+e\031\342X\227?\026\244\031\213\246\263\223?\032\335A\354L\241\223?\014\007B\262\200\t\214?\036\247\350H.\377\241?O#-\225\267#\214?333333\223?\253\317\325V\354/\273?\352\034\003\262\327\273\237?\374\251\361\322Mb\300?\265\246y\307):\222?l\220IF\316\302\216?O\227\305\304\346\343\212?`\256E\013\320\266j?\271lt\316Oql?9F\262G\250\031r?\016\023\rR\360\024\202?\245\362v\204\323\202\207?\rl\225`q8\223?\020\356\316\332m\027\232?\201\316\244M\325=\202?\000\000\000\000\000\000\000\000\263H\023\357\000Oz?`X\376|[\260t?\'1\010\254\034Z\264?\376}\306\205\003!\251?/\250o\231\323e\221?\005\243\222:\001M\244?H\371I\265O\307\263?\234\304 \260rh\241?U\301\250\244N@\303?2\341\227\372yS\221?\026\366\264\303_\223\225?\352x\314@e\374\233?\320_\350\021\243\347v?{\240\025\030\262\272\265?u\315\344\233mn\264?J\265O\307c\006\262?h\221\355|?5\236?x\316\026\020Z\017\177?BA)Z\271\027h?\227\213\370N\314z\201?\221D/\243Xn\271?A\366z\367\307{\225?\347\035\247\350H.\257?\223\030\004V\016-\222??5^\272I\014\302?\002\366\321\251+\237\245?\361\200\262)Wx\227?\t\376\267\222\035\033\241?[\261\277\354\236<\274?\244p=\n\327\243\240?@0G\217\337\333\224?b\200D\023(b\201?\343\337g\\8\020\242?\272\325s\322\373\306\227?\261mQf\203L\222?\225\016\326\3779\314\207?z\307):\222\313\277??\306\334\265\204|\310?I)\350\366\222\306\260?\377\255d\307F \216?\320I\357\033_{\246?\034\2240\323\366\257\254?\376\331\217\024\221a\225?\340bE\r\246a\230?\226>tA}\313\214?\325\005\274\314\260Qv?5)\005\335^\322\230?\"\303*\336\310<\222?o\360\205\311T\301\250?\265\037)\"\303*\216?\222\\\376C\372\355\263?\376\324x\351&1\300?\375\023\\\254\250\301\224?\010=\233U\237\253\265?\274\226\220\017z6\303?\331\311\340(yu\266?\205\0108\204*5\233?\252\361\322Mb\020\300?\301s\357\341\222\343\266?\261\205 \007%\314\224?6$\356\261\364\241\253?&X\034\316\374j\256?9\020\222\005L\340\206?=a\211\007\224M\231?x\177\274W\255L\260?\321\"\333\371~j\254?\006L\340\326\335<\225?X\255L\370\245~\236?\222\313\177H\277}\235?\300\004n\335\315S\235?[%X\034\316\374\252?\030`\037\235\272\362\231?g\354K6\036l\201?$#gaO;\234?\372\355\353\3009#\272?\327\206\212q\376&\224?\000\000\000\000\000\000\000\000\024:\257\261KT\267?<N\321\221\\\376\303?\327\250\207ht\007\241?\333\376\225\225&\245\240?\315@e\374\373\214\253?+0du\253\347\244?\234\326mP\373\255}?/\342;1\353\305\220?\227\220\017z6\253\276?\207m\2132\033d\222?\234\026\274\350+H\223?\267b\177\331=y\230?\177\023\n\021p\010\225?\274\221y\344\017\006\236?\002eS\256\360.\247?\312O\252}:\036\223?I\3642\212\345\226\266?\321\226s)\256*\233?\033/\335$\006\201\225?\023a\303\323+e\231?\347\303\263\004\031\001u?\0162\311\310Y\330\243?x#\363\310\037\014\234?\307\364\204%\036P\226?\221\'I\327L\276\211?\274\256_\260\033\266\265?\324\267\314\351\262\230\230?D\365\326\300V\t\206?X!\345\'\325>\215?T\343\245\233\304 \260?f,\232\316N\006\247?\210)\221D/\243\250?jj\331Z_$\224?d${\204\232!u?gI\200\232Z\266\226?\342\314\257\346\000\301\214?\346?\244\337\276\016\214?\'\302\206\247W\312\222?\316S\035r3\334\270?\013\315u\032i\251\234?\314\177H\277}\035\300?\303\273\\\304wb\266?Kvl\004\342u\235?\262)Wx\227\213\260?\327\022\362A\317f\225?\331\346\306\364\204%\236?_\235c@\366z\227?cz\302\022\017(\233?\001\030\317\240\241\177\242?uv28J^\255?O\256)\220\331Y\204?\033\273D\365\326\300\206?m\034\261\026\237\002\260?\340Jvl\004\342\245?\263v\333\205\346:\265?M\363\216St$\227?\301\312\241E\266\363\235?"
      }
    }
  }
}
node {
  name: "tensors/component_7"
  op: "Const"
  device: "/device:CPU:0"
  attr {
    key: "_output_shapes"
    value {
      list {
        shape {
          dim {
            size: 449
          }
        }
      }
    }
  }
  attr {
    key: "dtype"
    value {
      type: DT_DOUBLE
    }
  }
  attr {
    key: "value"
    value {
      tensor {
        dtype: DT_DOUBLE
        tensor_shape {
          dim {
            size: 449
          }
        }
        tensor_content: "q8\363\2539@\220?S\226!\216uq\213?4\205\316k\354\022\225?\312O\252}:\036\223?vO\036\026jM\223?E\201>\221\'I\207?\272\275\2441ZG\205?e\222\221\263\260\247\215?$EdX\305\033\211?\300\004n\335\315S\215?o)\347\213\275\027\177?\340\264\340E_A\212?\251\023\320D\330\360\244?\0221%\222\350e\224?\354\305PN\264\253\220?4\0216<\275R\206?gI\200\232Z\266\206?\252\t\242\356\003\220\212?\237\310\223\244k&\217?\003\t\212\037c\356\212?\206B\004\034B\225z?_\2235\352!\032\215?\344\017\006\236{\017\227?\340\204B\004\034B\205?M\363\216St$\207?\262)Wx\227\213\230?\215@\274\256_\260\213?\2132\033d\222\221\223?<\203\206\376\t.\206?B\262\200\t\334\272\213?,+MJA\267\207?\376\331\217\024\221a\205?\365\363\246\"\025\306\206?\331&\025\215\265\277\203?%\\\310#\270\221\202?\267b\177\331=y\210?\272\325s\322\373\306\207?J\200\232Z\266\326\207?\032\335A\354L\241\223?\325C4\272\203\330\211?b\240k_@/|?\006L\340\326\335<\205?l\354\022\325[\003\233?\370N\314z1\224\203?\002b\022.\344\021|?z6\253>W[\221?:\317\330\227l<x?\303\323+e\031\342\210?\002eS\256\360.w?V\361F\346\221?\210?X\255L\370\245~~?\325\257t><K\200?\374\251\361\322Mb\200?[\315:\343\373\342\202?[\315:\343\373\342\202?\032\213\246\263\223\301\201?\036\217\031\250\214\177\217?[|\n\200\361\014\212?\334\024\217\213j\021q?d\tkc\354\204w?=\363r\330}\307\200?\266\237\214\361a\366\202?\2613\205\316k\354\222?\336q\212\216\344\362\217?\263{\362\260Pk\212?V\361F\346\221?\210?kD0\016.\035\203?@\030x\356=\\\202?\374o%;6\002\241?\237]\276\365a\275\201?\346?\244\337\276\016\214?\275\030\312\211v\025\222?\277Hh\313\271\024\207?erjg\230\332\202?\000\343\0314\364O\200?\022\337\211Y/\206\222?\302\370i\334\233\337\200?Q\332\033|a2\225?>\355\360\327d\215\232?\245\243\034\314&\300\200?\362ba\210\234\276~?\373\"\241-\347R\214?Dio\360\205\311\224?\220\245\017]P\337\222?y\034\006\363W\310|?\206Z\323\274\343\024\215?\234\212T\030[\010\222?\372~j\274t\223\210?B&\0319\013{\212?\3127\333\334\230\236\220??\037e\304\005\240\201?v\303\266E\231\r\222?bJ$\321\313(\206?\010\000\216={.\203?\370\210\230\022I\364\222?\314\321\343\3676\375\211?\353V\317I\357\033\217?\033/\335$\006\201u?\177\302\331\255e2|?\357=\\r\334)\215?XSY\024vQ\204?\000\000\000\000\000\000\000\000C\345_\313+\327{?\365\363\246\"\025\306\206?\272LM\2027\244\201???\214\020\036m\214?\305wb\326\213\241\214?7\335\262C\374\303v?\023a\303\323+e\231?$\321\313(\226[z?\0260\201[w\363\204?9\326\305m4\200\227?\361\200\262)Wx\227?;\344f\270\001\237\217?\224\366\006_\230L\205?\345}\034\315\221\225\177?\303G\304\224H\242\227?\200C\250R\263\007\212?\362\260Pk\232w\214?\232\t\206s\r3\204?g\355\266\013\315uz?i\306\242\351\354d\220?\234P\210\200C\250\222?\372~j\274t\223\210?\340\204B\004\034B\205?\221\321\001I\330\267s?\003\225\361\3573.|?9@0G\217\337\213?t\272,&6\037\227?#\241-\347R\\\205?f\300YJ\226\223\200?\303\273\\\304wb\206?\206\000\340\330\263\347\202?\362\230\201\312\370\367\211?\246(\227\306/\274\202?j\030>\"\246D\202?0Bx\264q\304\212?\201\010q\345\354\235\201?\347\005\330G\247\256\234?\2201w-!\037\224?\000\000\000\000\000\000\000\000\330*\301\342p\346\207?\220kC\3058\177\203?\330\331\220\177f\020\177?9Cq\307\233\374v?A\202\342\307\230\273\206?\220\245\017]P\337\222?\274\035\341\264\340E\217?\301\220\325\255\236\223\216?@\333j\326\031\337w?\351\016bg\n\235\207?<\367\036.9\356\204?\017\227\034wJ\007\253?\366\320>V\360\333\200?\206\306\023A\234\207\203?\347\371\323Fu:\200?\265l\255/\022\332\222?A\202\342\307\230\273\206?\037\237\220\235\267\261y?\311\251\235ajKm?\017\326\3779\314\227\207?\351>\000\251M\234\234?\311^\357\376x\257\212?\221\017z6\253>\207?\3127\333\334\230\236\220?\007\257]\332pXz?\356[\255\023\227\343u?\261\033\266-\312l\220?\3058\177\023\n\021\220?B~6r\335\224\202?\355\231%\001jj\211?\314\265h\001\332V\203?F%u\002\232\010\213?\275\306.Q\2755\220?\000\000\000\000\000\000\000\000\000\000\000\000\000\000\000\000\215(\355\r\2760\231?\306PN\264\253\220\222?\242\010\251\333\331W^?\242\010\251\333\331W~?\355\231%\001jj\211?\353\377\034\346\313\013\220?\321\347\243\214\270\000\204?\271\031n\300\347\207\221?P\345\264\247\344\234x?X\215%\254\215\261c?]n0\324a\205{?0*\251\023\320D\210?\345\'\325>\035\217y?f\272\327I}Yz?\035\376\232\254Q\017\221?\347\030\220\275\336\375\221?\000\000\000\000\000\000\000\000 ^\327/\330\r\213?\234\026\274\350+H\223?\312\375\016E\201>\201?\016\2760\231*\030\225?\373\256\010\376\267\222\215?\340(yu\216\001\211?\274^\232\"\300\351}?\324+e\031\342X\207?\226\262\014q\254\213\213?\256\266b\177\331=\231?\215\264T\336\216p\212?\006L\340\326\335<\205?&p\353n\236\352\200?\271Qd\255\241\324~?Ve\337\025\301\377\206?Mjh\003\260\001\201?\253z\371\235&3~?\216\006\360\026HP\234?\274\254\211\005\276\242{?pw\326n\273\320\214?\354\206m\2132\033\244?~\251\2377\025\251\220?O\257\224e\210c\215?\3274\3578EG\222?\001\331\353\335\037\357\205?\271\031n\300\347\207\221?\371f\233\033\323\023\206?\"\304\225\263wF{?\254\250\3014\014\037\201?\251\240\242\352W:\177?}\317H\204F\260\201?J#f\366y\214\202?J\230i\373WV\212?\033\326T\026\205]t?\235\200&\302\206\247\207?}\002(F\226\314\201?\336\345\"\276\023\263\216?\325[\003[%X\214?\232\231\231\231\231\231i?s\267\353\245)\002l?\016J\230i\373W\206?$\265P29\265\203?\344\3676\375\331\217\204?m\2132\033d\222\221??\214\020\036m\034\221?\333\205\346:\215\264\204?O#-\225\267#\214?I\3642\212\345\226\206?\234/\366^|\321n?)\320\'\362$\351\212?s\242]\205\224\237\204?\0059(a\246\355\217?\334\235\265\333.4\207?a\027E\017|\014v?\346?\244\337\276\016\214?\300`7l[\224y?\230i\373WV\232\204?\203\372\2269]\026\223?\'\302\206\247W\312\202?\036\334\235\265\333.\224?\325C4\272\203\330\211?\030`\037\235\272\362\211?\007\010\346\350\361{\213?\353V\317I\357\033\217?\234.\213\211\315\307\225?\362\310\037\014<\367\236?<\367\036.9\356\204?\301\305\212\032L\303\200?\022\267\nb\240k\177?\376\237\303|y\001\226?\362\316\241\014U1u?\323Mb\020X9\204?\032\027\016\204d\001\203?\243#\271\374\207\364\213?\371G\337\244iP\204?=\'\275o|\355y?\312\303B\255i\336\221?\177\201 @\206\216m?\302\204\321\254l\037\202?\270\252\354\273\"\370\217?\253Z\322Q\016f\203?\257A_z\373s\201?\036\026jM\363\216\223?\272\023\354\277\316Mk?.\347R\\U\366\215?\310\010\250p\004\251t?#\241-\347R\\\205?B&\0319\013{\212?\327\372\"\241-\347\222?\336\345\"\276\023\263\216?\246~\336T\244\302\210?\'\374R?o*\222?\251\276\363\213\022\364g?\rT\306\277\317\270\220?\307F ^\327/x?&\0319\013{\332\241?fd\220\273\010S\204?\035\261\026\237\002`\234?\345\233mnLO\210?\002eS\256\360.\207?\017\200\270\253W\221\201?\351,\263\010\305V\200?\037Q\241\272\271\370{?\211\231}\036\243<\203?\300\004n\335\315S\215?\203\337\206\030\257yu?\232\231\231\231\231\231\211?\255n\365\234\364\276\221?\010\224M\271\302\273\214?3\371f\233\033\323\223?\230J?\341\354\326\202?v\301\340\232;\372\177?\274\3222R\357\251|?\002\364\373\376\315\213c?\271lt\316Oql?L\376\'\177\367\216j?)!XU/\277s?\331?O\003\006I\177?\005\343\340\3221\347y?Mg\'\203\243\344\205?\033J\355E\264\035s?\000\000\000\000\000\000\000\000\366#EdX\305k?`X\376|[\260t?b\326\213\241\234h\207?\033\231G\376`\340\231?\307\272\270\215\006\360\206?;\344f\270\001\237\217?\013\357r\021\337\211\211?\333\205\346:\215\264\204?\014\007B\262\200\t\214?\027c`\035\307\017u?\227\214c${\204z?FXT\304\351${?\324|\225|\354.p?\246\"\025\306\026\202\214?\nc\013A\016J\210?\305\003\312\246\\\341\215?\370\341 !\312\027\204?A\235\362\350FXt?BA)Z\271\027h?`\256E\013\320\266z?]\247\221\226\312\333\221?.\347R\\U\366}?\r\246a\370\210\230\222?t\236\261/\331x\200?\023\355*\244\374\244\212?\242\013\352[\346t\211?v\375\202\335\260m\201?\001M\204\rO\257\204?\312\211v\025R~\222?\241\363\032\273D\365\206?\320\320?\301\305\212\212?\340\020\252\324\354\201v?\231\365b(\'\332\205?\256|\226\347\301\335y?\317\240\241\177\202\213\205?\245\244\207\241\325\311y?\033\201x]\277`\227?\213\345\226VC\342\216?7\340\363\303\010\341\221?\377\255d\307F \216?\375M(D\300!\224?\240O\344I\3225\223?\212\\p\006\177\277x?\325s\322\373\306\327\216?O\227\305\304\346\343z?+N\265\026f\241m?\3167\242{\3265z?m\003w\240Ny\204?\234hW!\345\'\205?\315\223k\ndvv?yu\216\001\331\353\215?\362\230\201\312\370\367\231?\265\306\240\023B\007}?k\324C4\272\203\210?\377\255d\307F \216?\332\341\257\311\032\365\220?rP\302L\333\277\202?\342@H\0260\201\213?B\232\261h:;\211?\030`\037\235\272\362y?\221\233\341\006|~\210?1 {\275\373\343\235?\314\007\004:\2236u?\357\221\315U\363\034\201?y]\277`7l\213?J\200\232Z\266\326\207?\246\"\025\306\026\202|?\212\032L\303\360\021\221?\365g?RD\206\205?\256\016\200\270\253W\201?\301\377V\262c#\220?\245f\017\264\002C\206?f\237\307(\317\274|?\203L2r\026\366\224?Y\213O\0010\236\241?+\302MF\225a|?\000\000\000\000\000\000\000\000\234\376\354G\212\310\220?\377\t.V\324`\212?\211\262\267\224\363\305~?rP\302L\333\277\202?V\225}W\004\377\213?\325[\003[%X\214?: \t\373v\022q?\360\301k\2276\034v?\365g?RD\206\205?\274\010S\224K\343w?\344\203\236\315\252\317\205?\226\227\374O\376\356}?\016\2760\231*\030\205?\235\200&\302\206\247\207?\335@\201w\362\351\201?-\317\203\273\263v\213?\254\255\330_vO\216?j\274t\223\030\004\206?\215\317d\377<\rx?l]j\204~\246~?\347\303\263\004\031\001u?\221\233\341\006|~\210?\331\315\214~4\234\202?]\000\032\245K\377\202?\327\241\232\222\254\303\201?\272\203\330\231B\347\225?G\313\201\036j\333\200?\343\2167\371-:y?\177h\346\3115\005\202?vq\033\r\340-\220?\243\227Q,\267\264\212?\020\356\316\332m\027\212?\317\240\241\177\202\213\205?{O\345\264\247\344l?\211\265\370\024\000\343\211?\327\022\362A\317f\205?\000\344\204\t\243Yy?L\300\257\221$\010w?9\020\222\005L\340\226?\330*\301\342p\346\207?\036\026jM\363\216\223?\272\245\325\220\270\307\222?\212\347l\001\241\365\200?\305v\367\000\335\227\203?\367\312\274U\327\241z?\301\344F\221\265\206\202?\354\244\276,\355\324|?D\365\326\300V\t\206?\230Q,\267\264\032\222?\202n/i\214\326\221?\345B\345_\313+w?\033\273D\365\326\300\206?9\230M\200a\371\203?\261\341\351\225\262\014\221?A\202\342\307\230\273\206?OV\014W\007@|?\023\177\024u\346\036\202?"
      }
    }
  }
}
node {
  name: "tensors/component_8"
  op: "Const"
  device: "/device:CPU:0"
  attr {
    key: "_output_shapes"
    value {
      list {
        shape {
          dim {
            size: 449
          }
        }
      }
    }
  }
  attr {
    key: "dtype"
    value {
      type: DT_DOUBLE
    }
  }
  attr {
    key: "value"
    value {
      tensor {
        dtype: DT_DOUBLE
        tensor_shape {
          dim {
            size: 449
          }
        }
        tensor_content: "\007\360\026HP\374\320?\003+\207\026\331\316\307?\264\310v\276\237\032\317?{\024\256G\341z\320?\315\314\314\314\314\314\304?\233\346\035\247\350H\306?_)\313\020\307\272\310?\t\371\240g\263\352\303?\222\355|?5^\312?}?5^\272I\314?\360\247\306K7\211\271?_\272I\014\002+\307?u\002\232\010\033\236\306?h\"lxz\245\274?lxz\245,C\314?\'\240\211\260\341\351\305?F\224\366\006_\230\304?\177\373:p\316\210\312?Tt$\227\377\220\316??\306\334\265\204|\300?\023\355*\244\374\244\262?\0329\013{\332\341\257?\376e\367\344a\241\316?e\031\342X\027\267\311?7\211A`\345\320\312?R\270\036\205\353Q\320?\014\223\251\202QI\321?\337O\215\227n\022\303?c\356ZB>\350\311?\302\027&S\005\243\302?\235\200&\302\206\247\307?\265\025\373\313\356\311\303?\025\035\311\345?\244\307?\014\002+\207\026\331\306?$\271\374\207\364\333\307?\367\344a\241\3264\307?\366\227\335\223\207\205\302?_\322\030\255\243\252\251?\253\347\244\367\215\257\235?\020\351\267\257\003\347\314?\362\260Pk\232w\274?\265\246y\307):\302?EGr\371\017\351\317?\360\026HP\374\030\303?6\315;N\321\221\304?\000\221~\373:p\316?\340\264\340E_A\232?}\320\263Y\365\271\312?\301\305\212\032L\303\260?\rq\254\213\333h\300?\276\301\027&S\005\243?\355\330\010\304\353\372\265?\347\306\364\204%\036\260?\366(\\\217\302\365\300?/\335$\006\201\225\303?\tUj\366@+\260?\026\373\313\356\311\303\312?(\017\013\265\246y\307?\033\273D\365\326\300\206?\307\327\236Y\022\240\246?E_A\232\261h\232?\031x\356=\\r\234?\014\002+\207\026\331\306?$\356\261\364\241\013\252?I.\377!\375\366\305?\360\205\311T\301\250\304?t)\256*\373\256\260?\304|y\001\366\321\261?ffffff\306?\223\221\263\260\247\035\256?.\220\240\3701\346\306?\376\267\222\035\033\201\250?\312T\301\250\244N\310?\335\265\204|\320\263\301?\317f\325\347j+\266?\333\371~j\274t\303?K^\235c@\366\262?\362A\317f\325\347\312?\"\216uq\033\r\320?\230\206\341#bJ\264?\312\253s\014\310^\257?\006\022\024?\306\334\305?E\330\360\364JY\322?\343\307\230\273\226\220\307?D\335\007 \265\211\263?\334h\000o\201\004\305?\\\217\302\365(\\\277?(~\214\271k\t\311?\014\002+\207\026\331\276?R\'\240\211\260\341\301?+Ral!\310\261?j\336q\212\216\344\302?\252`TR\'\240\271?\377[\311\216\215@\264?\337O\215\227n\022\313?\030\225\324\th\"\304?\223\221\263\260\247\035\256?\340bE\r\246a\230?S\313\326\372\"\241\265?\325x\351&1\010\304?\254\255\330_vO\276?\000\000\000\000\000\000\000\000\331\010\304\353\372\005\263?\332\341\257\311\032\365\270?\240T\373t<f\240?$(~\214\271k\311?\347\035\247\350H.\277?\225\331 \223\214\234\265?:\264\310v\276\237\322?\032L\303\360\0211\265?\310$#gaO\253?}?5^\272I\274?\335$\006\201\225C\303?\265\253\220\362\223j\257?\341z\024\256G\341\272?>\355\360\327d\215\262?\251\207ht\007\261\243?\374\030s\327\022\362\311?\267\321\000\336\002\t\312?\274t\223\030\004V\276?\220,`\002\267\356\266?\350\331\254\372\\m\305?\274\005\022\024?\306\314?\031s\327\022\362A\277?\262\272\325s\322\373\266?\303_\2235\352!\252?\027\267\321\000\336\002\301?\347\035\247\350H.\277?-C\034\353\3426\302?\317f\325\347j+\306?h\005\206\254n\365\264?\251\244N@\023a\303?\t\033\236^)\313\300?\0216<\275R\226\301?\273\'\017\013\265\246\301?P\307c\006*\343\267?\202n/i\214\326\261?4K\002\324\324\262\265?-!\037\364lV\305?\227\312\333\021N\013\266?\000\000\000\000\000\000\000\000\305\2171w-!\277?38J^\235c\260?c\356ZB>\350\271?a\375\237\303|y\241?\254s\014\310^\357\256?\254\034Zd;\337\307?\243\222:\001M\204\265?\362\260Pk\232w\304?\305\254\027C9\321\256?\347\306\364\204%\036\260?\226x@\331\224+\264?\007\316\031Q\332\033\304?q\261\242\006\3230\254?\372a\204\360h\343\270?\367\257\2544)\005\265?1\010\254\034Zd\303?\361.\027\361\235\230\265?\226C\213l\347\373\261?w\370k\262F=\244?\310\315p\003>?\264?\311\345?\244\337\276\306?4\242\2647\370\302\314?\'\367;\024\005\372\264?\363\037\322o_\007\316?Kvl\004\342u\255?\376\016E\201>\221\247?Y\027\267\321\000\336\302?\363\037\322o_\007\306?)\313\020\307\272\270\265?\265q\304Z|\n\270?\030\004V\016-\262\275?mV}\256\266b\307?\262\021\210\327\365\013\246?\000\000\000\000\000\000\000\000\000\000\000\000\000\000\000\000\002\232\010\033\236^\271??5^\272I\014\312?\266\237\214\361a\366\202?Y\2068\326\305m\244?\025\214J\352\0044\321?\334\327\201sF\224\322?\013$(~\214\271\303?\347\306\364\204%\036\260?mV}\256\266b\277?Ih\313\271\024W\205?\007\316\031Q\332\033\304?\030\225\324\th\"\274?\262\021\210\327\365\013\246?,\324\232\346\035\247\250?\037\364lV}\256\306?9\177\023\n\021p\250?\000\000\000\000\000\000\000\000[B>\350\331\254\302?%u\002\232\010\033\306?\206Z\323\274\343\024\265?`vO\036\026j\305?T\035r3\334\200\267?\006\022\024?\306\334\305?I\235\200&\302\206\307?\332\316\367S\343\245\273?\031\342X\027\267\321\310?\222\313\177H\277}\321?\207\247W\3122\304\311?\226C\213l\347\373\271?\021\307\272\270\215\006\300?\351>\000\251M\234\254?\346?\244\337\276\016\274?\336\223\207\205Z\323\274?\345\320\"\333\371~\272?\372~j\274t\223\310?\246\',\361\200\262\261?\321\"\333\371~j\304?\030\225\324\th\"\274?\037\364lV}\256\306?@\023a\303\323+\305?\247\350H.\377!\275?\016\303G\304\224H\242?\262\235\357\247\306K\307?\315\314\314\314\314\314\304?s\242]\205\224\237\264?\241\3264\3578E\267?%\006\201\225C\213\254?\003\t\212\037c\356\302?I)\350\366\222\306\270?O@\023a\303\323\273?^\327/\330\r\333\246?\273\'\017\013\265\246\301?i\221\355|?5\276?X\2505\315;N\311?\365\333\327\201sF\320?\334K\032\243uT\225?\222W\347\030\220\275\236?\304\261.n\243\001\304?\224\373\035\212\002}\262?\211\315\307\265\241b\264?F\224\366\006_\230\320?\345\320\"\333\371~\302?\321\350\016bg\n\265?\304B\255i\336q\312?\263\200\t\334\272\233\267?\220\367\252\225\t\277\244?\347\035\247\350H.\277?P\0010\236AC\257?M\025\214J\352\004\304?\312\375\016E\201>\261?5\3578EGr\251?\263\352s\265\025\373\303?\265\253\220\362\223j\257?\324\267\314\351\262\230\270?\213l\347\373\251\361\312?T\251\331\003\255\300\260?]\334F\003x\013\320?i\000o\201\004\305\307?\0216<\275R\226\311?\0216<\275R\226\301?*\251\023\320D\330\310?\234\242#\271\374\207\314?\3019#J{\203\317?\017\013\265\246y\307\311?)\313\020\307\272\270\305?\206Z\323\274\343\024\265?\036\026jM\363\216\303?\001\331\353\335\037\357\265?\023a\303\323+e\311?\352\0044\0216<\305?\230\206\341#bJ\264?\000\035\346\313\013\260\257?\325\347j+\366\227\255?j\274t\223\030\004\266?T\214\3637\241\020\241?ffffff\266?\343\307\230\273\226\220\307?|\355\231%\001j\252?\206Z\323\274\343\024\275?I\327L\276\331\346\266?\033\273D\365\326\300\206?q\033\r\340-\220\300?\007_\230L\025\214\252?\332\247\3431\003\225\271?g\325\347j+\366\307?b\241\3264\3578\265?\336\223\207\205Z\323\314?\317f\325\347j+\306?\267\321\000\336\002\t\272?\377\316\366\350\r\367\201?\305 \260rh\221\275?\232\3534\322Ry\253?\200\016\363\345\005\330\267?\373\343\275je\302\257?\372\355\353\3009#\272?W\354/\273\'\017\303?F%u\002\232\010\273?\365\271\332\212\375e\267?\351\324\225\317\362<\260?\206 \007%\314\264\255?\264T\336\216pZ\240?\370\302d\252`T\262?f\210c]\334F\263?\000\000\000\000\000\000\240?\362\322Mb\020X\311?\205\353Q\270\036\205\263?\223\251\202QI\235\310?\2377\025\2510\266\260?\024\\\254\250\3014\254?,\324\232\346\035\247\250?\232\231\231\231\231\231\231?\031x\356=\\r\214?\376e\367\344a\241\226?\275\030\312\211v\025\242?\206=\355\360\327d\255?\335<\325!7\303\255?G=D\243;\210\265?\334F\003x\013$\250?\000\000\000\000\000\000\000\000\246\"\025\306\026\202\234?e\245I)\350\366\222?A\202\342\307\230\273\306?\035Zd;\337O\275?\034wJ\007\353\377\234?R~R\355\323\361\270?=\n\327\243p=\302?\305 \260rh\221\275?\311v\276\237\032/\321?\031x\356=\\r\254?\347\005\330G\247\256\254?G\003x\013$(\256?\305wb\326\213\241\234?lxz\245,C\304?\257%\344\203\236\315\272?z6\253>W[\311?x(\n\364\211<\271?\333\205\346:\215\264\224?\212\032L\303\360\021\221?\334\242\314\006\231d\244?mV}\256\266b\307?\301\312\241E\266\363\255?-C\034\353\3426\312?\210)\221D/\243\260?\0054\0216<\275\312?a\303\323+e\031\302?Dio\360\205\311\264?\205\353Q\270\036\205\273?w\276\237\032/\335\314?\375M(D\300!\264?@0G\217\337\333\244?lC\3058\177\023\252?\210c]\334F\003\300?\301\305\212\032L\303\260?\273\233\247:\344f\250?Q\240O\344I\322\245?\207\026\331\316\367S\313?3\304\261.n\243\321?\016O\257\224e\210\303?\333\277\262\322\244\024\244?Gr\371\017\351\267\267?C\034\353\3426\032\300?\031x\356=\\r\254?\340bE\r\246a\250?\256|\226\347\301\335\251?\347\214(\355\r\276\220?t\260\376\317a\276\254?\272\275\2441ZG\265?%\001jj\331Z\267?\211\265\370\024\000\343\261?d;\337O\215\227\306?\226\262\014q\254\213\313?\321W\220f,\232\266?\262\235\357\247\306K\307?\305\2171w-!\317?\274\005\022\024?\306\314?r\205w\271\210\357\264?|a2U0*\311?F%u\002\232\010\313?\211\265\370\024\000\343\261?\210c]\334F\003\300?\215\227n\022\203\300\302?\014v\303\266E\231\255?$\227\377\220~\373\272?e\252`TR\'\320?;p\316\210\322\336\300?\265\375++MJ\261?\243#\271\374\207\364\273?\267(\263A&\031\271?y\344\017\006\236{\267?\023a\303\323+e\301?\365\271\332\212\375e\267?\355dp\224\274:\247?w\241\271N#-\265?\\\217\302\365(\\\307?\207\341#bJ$\261?\000\000\000\000\000\000\000\000\022\245\275\301\027&\313?q\254\213\333h\000\317?\265q\304Z|\n\260?\377[\311\216\215@\264?)\355\r\2760\231\302?\006L\340\326\335<\265?\031x\356=\\r\254?y]\277`7l\253?k\232w\234\242#\311?\265\340E_A\232\261?&p\353n\236\352\260?\323\331\311\340(y\265?|\233\376\354G\212\250?q\261\242\006\3230\264?\020\351\267\257\003\347\274?\260w\177\274W\255\254?\277}\0358gD\311?\273\233\247:\344f\270?\334\364g?RD\266?\331\010\304\353\372\005\263?\340\264\340E_A\232?\347\214(\355\r\276\300?\242E\266\363\375\324\260?\201!\253[=\'\265?vO\036\026jM\243?\377\262{\362\260P\313?YLl>\256\r\265?\262\021\210\327\365\013\246?\035\376\232\254Q\017\261?\257\224e\210c]\274?}?5^\272I\274?\246\nF%u\002\302?\002Hm\342\344~\247?E_A\232\261h\232?\023\362A\317f\325\267?\232\010\033\236^)\263?\333\205\346:\215\264\244?\312\211v\025R~\242?\256G\341z\024\256\317?Y\027\267\321\000\336\262?\306\334\265\204|\320\313?\006\022\024?\306\334\305?d\006*\343\337g\264?mV}\256\266b\307?G8-x\321W\260?1%\222\350e\024\263?G\003x\013$(\256?\177\023\n\021p\010\265?\201\225C\213l\347\303?\212\037c\356ZB\306?\332\341\257\311\032\365\240?\033\273D\365\326\300\226?\331\316\367S\343\245\303?\332\254\372\\m\305\276?\235\357\247\306K7\311?M\241\363\032\273D\265?V\324`\032\206\217\270?"
      }
    }
  }
}
node {
  name: "tensors/component_9"
  op: "Const"
  device: "/device:CPU:0"
